<pad>	0
<unk>	0
<s>	0
</s>	0
▁a	-0
▁1	-1
▁w	-2
▁i	-3
▁q	-4
ha	-5
▁is	-6
->	-7
▁->	-8
hat	-9
▁what	-10
▁9	-11
▁8	-12
▁7	-13
▁6	-14
te	-15
▁5	-16
▁4	-17
▁s	-18
▁3	-19
▁2	-20
▁'	-21
▁r	-22
▁n	-23
ce	-24
or	-25
di	-26
ng	-27
▁as	-28
cen	-29
ort	-30
ding	-31
▁sort	-32
▁ascen	-33
▁ascending	-34
ve	-35
xt	-36
se	-37
▁re	-38
▁te	-39
▁no	-40
ver	-41
verse	-42
▁reverse	-43
▁text	-44
▁note	-45
▁u	-46
▁k	-47
▁g	-48
▁p	-49
▁m	-50
▁j	-51
▁z	-52
▁b	-53
▁y	-54
▁e	-55
▁l	-56
▁f	-57
▁d	-58
▁x	-59
▁c	-60
▁v	-61
▁t	-62
▁o	-63
▁h	-64
▁10	-65
▁11	-66
▁12	-67
▁13	-68
▁14	-69
▁15	-70
▁16	-71
+4	-72
+3	-73
+9	-74
+2	-75
+7	-76
+1	-77
+5	-78
+6	-79
+8	-80
▁17	-81
5?	-82
0?	-83
9?	-84
4?	-85
7?	-86
6?	-87
3?	-88
2?	-89
1?	-90
8?	-91
▁18	-92
▁92	-93
▁94	-94
▁97	-95
▁87	-96
▁76	-97
▁80	-98
▁90	-99
▁91	-100
▁62	-101
▁98	-102
▁93	-103
▁85	-104
▁95	-105
▁99	-106
▁86	-107
▁89	-108
▁81	-109
▁64	-110
▁69	-111
▁75	-112
▁58	-113
▁79	-114
▁96	-115
▁73	-116
▁84	-117
▁71	-118
▁19	-119
▁68	-120
▁59	-121
▁60	-122
▁38	-123
▁57	-124
▁49	-125
▁88	-126
▁82	-127
▁42	-128
▁52	-129
▁70	-130
▁77	-131
▁78	-132
▁47	-133
▁50	-134
▁51	-135
▁54	-136
▁43	-137
▁37	-138
▁83	-139
▁55	-140
▁45	-141
▁74	-142
▁46	-143
▁56	-144
▁61	-145
▁67	-146
▁72	-147
▁44	-148
▁66	-149
▁65	-150
▁30	-151
▁25	-152
▁40	-153
▁41	-154
▁21	-155
▁53	-156
▁33	-157
▁63	-158
▁48	-159
▁22	-160
▁27	-161
▁28	-162
▁36	-163
▁24	-164
▁35	-165
▁39	-166
▁32	-167
▁29	-168
▁26	-169
▁23	-170
▁20	-171
▁34	-172
▁31	-173
▁0	-174
xg	-175
vp	-176
lf	-177
qb	-178
nw	-179
vy	-180
vj	-181
uf	-182
up	-183
qz	-184
ub	-185
cy	-186
qm	-187
hf	-188
kf	-189
oi	-190
xj	-191
cj	-192
nb	-193
nr	-194
cm	-195
db	-196
dj	-197
lb	-198
vb	-199
vz	-200
hw	-201
cp	-202
og	-203
ui	-204
xi	-205
ns	-206
qg	-207
hj	-208
kj	-209
cb	-210
ni	-211
hm	-212
na	-213
xw	-214
vm	-215
li	-216
oe	-217
qr	-218
xy	-219
uz	-220
om	-221
ow	-222
qa	-223
cw	-224
dy	-225
kw	-226
qj	-227
hi	-228
oj	-229
ua	-230
da	-231
nj	-232
vg	-233
nz	-234
le	-235
ca	-236
dr	-237
op	-238
dw	-239
lj	-240
ly	-241
xb	-242
dz	-243
xm	-244
ke	-245
qe	-246
ue	-247
km	-248
nf	-249
nm	-250
cz	-251
cf	-252
vi	-253
de	-254
tw	-255
of	-256
lg	-257
lp	-258
hb	-259
kg	-260
ob	-261
qf	-262
kr	-263
hz	-264
qs	-265
la	-266
ur	-267
xe	-268
xp	-269
kp	-270
ne	-271
lz	-272
oa	-273
ny	-274
uj	-275
hg	-276
vf	-277
vw	-278
tf	-279
cg	-280
kz	-281
he	-282
dm	-283
ls	-284
us	-285
va	-286
dg	-287
oz	-288
hp	-289
qy	-290
lw	-291
ug	-292
dp	-293
ki	-294
tm	-295
ci	-296
ka	-297
kb	-298
xa	-299
hr	-300
vr	-301
xf	-302
lr	-303
oy	-304
xz	-305
ky	-306
xr	-307
hy	-308
np	-309
qw	-310
uw	-311
tz	-312
cr	-313
df	-314
qp	-315
tg	-316
lm	-317
tp	-318
ts	-319
hs	-320
cs	-321
ds	-322
qi	-323
ty	-324
ti	-325
tb	-326
um	-327
vs	-328
tj	-329
uy	-330
ta	-331
os	-332
tr	-333
xs	-334
ks	-335
gy	-336
gm	-337
fz	-338
ii	-339
ge	-340
pr	-341
ga	-342
pm	-343
fe	-344
pa	-345
fj	-346
gr	-347
ba	-348
fr	-349
br	-350
fa	-351
wj	-352
bj	-353
pj	-354
fs	-355
gz	-356
bm	-357
be	-358
wm	-359
wr	-360
ps	-361
bs	-362
wz	-363
pe	-364
pi	-365
yr	-366
pz	-367
bz	-368
fm	-369
wa	-370
we	-371
bi	-372
wi	-373
ws	-374
gj	-375
ye	-376
yz	-377
ya	-378
fi	-379
ul	-380
dv	-381
gs	-382
gi	-383
ys	-384
ym	-385
yj	-386
qo	-387
yi	-388
ko	-389
cn	-390
dh	-391
kv	-392
kn	-393
qt	-394
cl	-395
uv	-396
ql	-397
cv	-398
kh	-399
un	-400
uo	-401
xh	-402
xv	-403
qv	-404
xo	-405
qh	-406
uh	-407
dn	-408
xl	-409
co	-410
xn	-411
dt	-412
do	-413
ch	-414
kl	-415
qn	-416
kt	-417
ut	-418
dl	-419
ct	-420
jz	-421
ja	-422
jm	-423
jr	-424
sm	-425
sa	-426
zz	-427
bf	-428
je	-429
im	-430
xd	-431
re	-432
rm	-433
sz	-434
ae	-435
ll	-436
qk	-437
ud	-438
hv	-439
ie	-440
qd	-441
pp	-442
yf	-443
xc	-444
ot	-445
gf	-446
wf	-447
rz	-448
on	-449
ht	-450
xk	-451
am	-452
qc	-453
pf	-454
uu	-455
az	-456
vn	-457
ji	-458
ln	-459
bw	-460
hn	-461
vt	-462
gw	-463
si	-464
kk	-465
pw	-466
cd	-467
bb	-468
sr	-469
xu	-470
lo	-471
yw	-472
qu	-473
ze	-474
lt	-475
gp	-476
ck	-477
hh	-478
ri	-479
aa	-480
jj	-481
zm	-482
lv	-483
gb	-484
dd	-485
yb	-486
cu	-487
ov	-488
qq	-489
ss	-490
nt	-491
yp	-492
rr	-493
me	-494
vv	-495
ai	-496
zi	-497
ww	-498
xx	-499
uk	-500
ho	-501
yy	-502
pb	-503
cc	-504
ff	-505
nn	-506
hl	-507
mm	-508
ra	-509
kd	-510
gg	-511
tt	-512
sj	-513
xq	-514
rj	-515
ee	-516
oo	-517
mz	-518
aj	-519
fw	-520
cq	-521
bp	-522
ku	-523
yg	-524
nv	-525
mi	-526
ol	-527
as	-528
hd	-529
wp	-530
ar	-531
ld	-532
tn	-533
fb	-534
tv	-535
iz	-536
fp	-537
od	-538
wb	-539
fg	-540
hk	-541
js	-542
uc	-543
wg	-544
mr	-545
zs	-546
qx	-547
mj	-548
ms	-549
bg	-550
hu	-551
pg	-552
by	-553
rs	-554
lk	-555
za	-556
ma	-557
dk	-558
to	-559
wy	-560
fy	-561
hc	-562
ei	-563
zr	-564
uq	-565
vo	-566
tl	-567
cx	-568
zj	-569
td	-570
py	-571
no	-572
nk	-573
vd	-574
tk	-575
hq	-576
nl	-577
is	-578
hx	-579
vl	-580
ia	-581
ir	-582
ux	-583
nd	-584
ij	-585
kq	-586
es	-587
er	-588
kc	-589
vq	-590
ez	-591
oq	-592
dc	-593
jw	-594
nh	-595
jp	-596
tc	-597
ea	-598
kx	-599
vu	-600
mb	-601
zp	-602
zb	-603
vc	-604
tu	-605
du	-606
lx	-607
ib	-608
mw	-609
jf	-610
lh	-611
ou	-612
oc	-613
rf	-614
oh	-615
vh	-616
my	-617
dq	-618
lu	-619
mp	-620
tx	-621
lq	-622
nu	-623
mg	-624
zf	-625
ok	-626
nc	-627
lc	-628
rg	-629
th	-630
vx	-631
vk	-632
ag	-633
ab	-634
sp	-635
aw	-636
iy	-637
nq	-638
dx	-639
tq	-640
rb	-641
mf	-642
zg	-643
jy	-644
jb	-645
sw	-646
ay	-647
af	-648
rw	-649
sg	-650
ip	-651
sb	-652
jg	-653
sy	-654
nx	-655
zw	-656
ry	-657
zy	-658
ap	-659
ox	-660
ig	-661
rp	-662
sf	-663
if	-664
iw	-665
ej	-666
eb	-667
ep	-668
ew	-669
em	-670
eg	-671
ey	-672
ef	-673
▁ha	-674
▁or	-675
▁ce	-676
▁di	-677
▁xt	-678
▁ve	-679
pl	-680
▁102	-681
gh	-682
▁106	-683
▁101	-684
gt	-685
▁103	-686
▁105	-687
7+2	-688
7+9	-689
gl	-690
pv	-691
9+4	-692
▁104	-693
bv	-694
pt	-695
6+9	-696
bn	-697
+36	-698
+12	-699
+50	-700
0+7	-701
bh	-702
ft	-703
8+6	-704
+17	-705
yt	-706
▁100	-707
yn	-708
yo	-709
wo	-710
mn	-711
zk	-712
5+6	-713
bo	-714
+38	-715
7+6	-716
fl	-717
gk	-718
yh	-719
6+4	-720
gn	-721
ph	-722
po	-723
+19	-724
gv	-725
jn	-726
zv	-727
2+4	-728
gu	-729
jo	-730
zl	-731
bq	-732
pn	-733
bk	-734
go	-735
jh	-736
+13	-737
+52	-738
1+7	-739
bt	-740
fo	-741
jt	-742
+10	-743
+31	-744
mo	-745
yk	-746
4+9	-747
1+2	-748
3+7	-749
bl	-750
+53	-751
1+4	-752
1+6	-753
mt	-754
wu	-755
9+2	-756
▁108	-757
bu	-758
sn	-759
wn	-760
wt	-761
zo	-762
+34	-763
+37	-764
+85	-765
3+9	-766
7+7	-767
▁110	-768
fu	-769
wh	-770
6+2	-771
fh	-772
yl	-773
2+7	-774
fd	-775
yv	-776
+33	-777
fv	-778
+89	-779
ju	-780
pd	-781
+58	-782
2+6	-783
3+2	-784
+30	-785
8+4	-786
fx	-787
yx	-788
+55	-789
fk	-790
wk	-791
wv	-792
+59	-793
wq	-794
yc	-795
8+9	-796
at	-797
zt	-798
rn	-799
+32	-800
+88	-801
1+9	-802
5+4	-803
ao	-804
wc	-805
+51	-806
jv	-807
wl	-808
yd	-809
+14	-810
4+2	-811
so	-812
+16	-813
0+9	-814
5+2	-815
9+7	-816
al	-817
+54	-818
+87	-819
jl	-820
+82	-821
+83	-822
mq	-823
px	-824
▁107	-825
▁112	-826
fn	-827
gc	-828
it	-829
mc	-830
6+7	-831
+35	-832
5+9	-833
mv	-834
+15	-835
+56	-836
wd	-837
yq	-838
+81	-839
3+4	-840
8+2	-841
fq	-842
ml	-843
pk	-844
▁114	-845
jx	-846
rt	-847
rv	-848
+39	-849
0+4	-850
9+9	-851
ik	-852
bd	-853
5+7	-854
9+6	-855
rh	-856
sv	-857
+57	-858
iv	-859
yu	-860
zn	-861
4+4	-862
bx	-863
st	-864
+11	-865
in	-866
0+6	-867
2+2	-868
8+7	-869
+86	-870
+84	-871
4+7	-872
ad	-873
iu	-874
mh	-875
pu	-876
jk	-877
zd	-878
+18	-879
+80	-880
7+4	-881
ac	-882
gd	-883
ih	-884
bc	-885
rq	-886
0+2	-887
ah	-888
il	-889
zc	-890
4+6	-891
fc	-892
2+9	-893
gq	-894
pc	-895
sc	-896
▁113	-897
iq	-898
av	-899
ro	-900
▁115	-901
au	-902
ax	-903
sd	-904
gx	-905
id	-906
rl	-907
rc	-908
io	-909
6+6	-910
sh	-911
md	-912
▁109	-913
jq	-914
rd	-915
zq	-916
pq	-917
jc	-918
wx	-919
zh	-920
ev	-921
jd	-922
▁111	-923
eo	-924
et	-925
su	-926
an	-927
mu	-928
aq	-929
3+6	-930
sk	-931
ru	-932
sl	-933
mk	-934
zu	-935
zx	-936
▁117	-937
rk	-938
sx	-939
▁116	-940
▁118	-941
ak	-942
ix	-943
ic	-944
mx	-945
sq	-946
eq	-947
el	-948
ek	-949
▁123	-950
▁125	-951
rx	-952
▁126	-953
▁119	-954
▁120	-955
▁121	-956
en	-957
ec	-958
▁122	-959
eh	-960
ed	-961
▁129	-962
▁124	-963
▁127	-964
eu	-965
ex	-966
▁128	-967
▁133	-968
▁131	-969
▁135	-970
▁132	-971
▁130	-972
▁134	-973
▁141	-974
▁143	-975
▁136	-976
▁137	-977
▁138	-978
▁qe	-979
▁139	-980
▁ge	-981
▁he	-982
▁144	-983
▁ke	-984
▁142	-985
▁pe	-986
▁we	-987
▁147	-988
▁140	-989
▁oi	-990
▁de	-991
▁146	-992
▁145	-993
▁nm	-994
▁be	-995
▁ue	-996
▁pm	-997
▁ae	-998
▁xm	-999
▁150	-1000
▁za	-1001
▁154	-1002
▁ja	-1003
▁mm	-1004
▁si	-1005
▁vr	-1006
33?	-1007
38?	-1008
▁ie	-1009
▁zr	-1010
41?	-1011
▁gs	-1012
▁im	-1013
▁tm	-1014
▁le	-1015
▁os	-1016
▁149	-1017
▁je	-1018
▁oa	-1019
▁xe	-1020
▁ze	-1021
00?	-1022
▁dz	-1023
▁ee	-1024
▁fe	-1025
▁ai	-1026
▁bs	-1027
▁ra	-1028
▁mz	-1029
▁sr	-1030
▁yr	-1031
▁hz	-1032
▁pz	-1033
▁ye	-1034
90?	-1035
▁ea	-1036
▁mi	-1037
▁ts	-1038
▁148	-1039
▁hi	-1040
▁jm	-1041
▁ki	-1042
▁uz	-1043
▁vz	-1044
55?	-1045
▁am	-1046
▁az	-1047
▁gm	-1048
▁me	-1049
29?	-1050
▁xr	-1051
▁bj	-1052
▁es	-1053
19?	-1054
79?	-1055
▁bm	-1056
▁ca	-1057
▁gi	-1058
▁fm	-1059
▁xa	-1060
05?	-1061
52?	-1062
▁br	-1063
▁cs	-1064
▁vm	-1065
▁ci	-1066
▁js	-1067
▁rz	-1068
▁ui	-1069
▁ii	-1070
▁ij	-1071
▁wz	-1072
▁yi	-1073
97?	-1074
▁dm	-1075
▁hm	-1076
▁ma	-1077
▁qi	-1078
▁tr	-1079
▁tz	-1080
49?	-1081
74?	-1082
98?	-1083
39?	-1084
▁ds	-1085
▁ni	-1086
▁qm	-1087
▁rm	-1088
▁wa	-1089
56?	-1090
▁em	-1091
▁pj	-1092
▁ri	-1093
▁dr	-1094
▁ga	-1095
▁xi	-1096
20?	-1097
54?	-1098
▁fi	-1099
▁se	-1100
83?	-1101
▁kr	-1102
▁ne	-1103
▁um	-1104
▁ya	-1105
▁ym	-1106
▁zs	-1107
40?	-1108
▁hs	-1109
▁wr	-1110
14?	-1111
73?	-1112
▁ar	-1113
▁er	-1114
▁ji	-1115
▁pa	-1116
▁151	-1117
51?	-1118
▁ta	-1119
▁wi	-1120
▁xy	-1121
▁153	-1122
▁gz	-1123
▁ka	-1124
▁ow	-1125
71?	-1126
▁ez	-1127
▁ua	-1128
▁xj	-1129
▁yz	-1130
62?	-1131
75?	-1132
99?	-1133
▁cm	-1134
▁fz	-1135
▁kz	-1136
▁li	-1137
▁sa	-1138
▁ss	-1139
▁zw	-1140
16?	-1141
21?	-1142
34?	-1143
▁fj	-1144
▁gw	-1145
64?	-1146
▁cz	-1147
▁ks	-1148
▁lm	-1149
▁vs	-1150
▁km	-1151
▁oe	-1152
▁va	-1153
06?	-1154
42?	-1155
▁eb	-1156
▁ia	-1157
▁oj	-1158
▁oz	-1159
▁pr	-1160
▁xz	-1161
▁mp	-1162
▁mr	-1163
91?	-1164
▁da	-1165
▁gr	-1166
▁xf	-1167
▁na	-1168
▁sz	-1169
▁ba	-1170
▁kj	-1171
▁lj	-1172
▁rb	-1173
▁rj	-1174
▁us	-1175
▁152	-1176
15?	-1177
▁jr	-1178
▁lr	-1179
▁ps	-1180
▁uj	-1181
▁ys	-1182
68?	-1183
▁bi	-1184
▁jy	-1185
▁ry	-1186
▁ti	-1187
▁vf	-1188
69?	-1189
▁iz	-1190
▁tb	-1191
24?	-1192
77?	-1193
▁ei	-1194
▁hy	-1195
▁xb	-1196
▁zz	-1197
▁156	-1198
35?	-1199
▁cf	-1200
▁qs	-1201
▁vj	-1202
23?	-1203
60?	-1204
86?	-1205
▁mf	-1206
30?	-1207
▁nr	-1208
▁rr	-1209
65?	-1210
▁bz	-1211
▁ir	-1212
▁ms	-1213
10?	-1214
26?	-1215
▁ff	-1216
▁vb	-1217
▁vi	-1218
▁zj	-1219
▁zm	-1220
67?	-1221
81?	-1222
▁sm	-1223
▁157	-1224
78?	-1225
▁cy	-1226
▁hr	-1227
▁py	-1228
▁ty	-1229
▁vy	-1230
25?	-1231
▁hw	-1232
▁if	-1233
85?	-1234
▁lb	-1235
▁lz	-1236
▁uy	-1237
▁xs	-1238
▁jp	-1239
▁lw	-1240
▁nj	-1241
09?	-1242
11?	-1243
12?	-1244
46?	-1245
92?	-1246
▁fa	-1247
▁fs	-1248
▁hp	-1249
▁of	-1250
▁pi	-1251
▁rp	-1252
▁ub	-1253
▁wm	-1254
36?	-1255
▁bw	-1256
▁cw	-1257
▁gf	-1258
▁nb	-1259
▁qj	-1260
▁tj	-1261
27?	-1262
32?	-1263
▁ig	-1264
▁ns	-1265
▁qa	-1266
▁uw	-1267
53?	-1268
82?	-1269
96?	-1270
▁aa	-1271
▁hj	-1272
▁kb	-1273
▁oy	-1274
▁xw	-1275
▁dp	-1276
▁gb	-1277
▁lp	-1278
▁mb	-1279
07?	-1280
13?	-1281
88?	-1282
95?	-1283
▁aj	-1284
▁ap	-1285
▁ip	-1286
▁jj	-1287
▁tf	-1288
80?	-1289
▁kf	-1290
▁sf	-1291
▁155	-1292
28?	-1293
37?	-1294
48?	-1295
70?	-1296
72?	-1297
▁ob	-1298
▁tw	-1299
▁wb	-1300
57?	-1301
63?	-1302
76?	-1303
84?	-1304
94?	-1305
▁bf	-1306
▁jw	-1307
▁jz	-1308
▁tp	-1309
02?	-1310
87?	-1311
▁ej	-1312
▁qg	-1313
▁163	-1314
03?	-1315
22?	-1316
45?	-1317
47?	-1318
▁aw	-1319
▁ef	-1320
▁og	-1321
▁qr	-1322
04?	-1323
44?	-1324
61?	-1325
▁fb	-1326
▁fp	-1327
▁fr	-1328
▁hb	-1329
▁rs	-1330
▁yb	-1331
31?	-1332
▁sj	-1333
93?	-1334
▁hg	-1335
▁mj	-1336
▁sg	-1337
▁ab	-1338
▁nz	-1339
▁pp	-1340
▁qb	-1341
▁qf	-1342
▁vw	-1343
▁zi	-1344
58?	-1345
▁ay	-1346
▁np	-1347
▁sp	-1348
▁ur	-1349
▁cj	-1350
▁jf	-1351
▁om	-1352
▁pw	-1353
▁yj	-1354
▁yp	-1355
59?	-1356
▁ep	-1357
▁rw	-1358
▁159	-1359
▁161	-1360
▁db	-1361
▁lf	-1362
▁nw	-1363
▁op	-1364
▁qp	-1365
▁qy	-1366
▁up	-1367
▁zp	-1368
▁af	-1369
▁kg	-1370
▁la	-1371
▁vg	-1372
01?	-1373
17?	-1374
▁bb	-1375
▁ew	-1376
▁ib	-1377
▁pb	-1378
▁pf	-1379
08?	-1380
▁fw	-1381
▁lg	-1382
▁mw	-1383
▁my	-1384
▁ag	-1385
▁ls	-1386
▁qz	-1387
▁ws	-1388
89?	-1389
▁wy	-1390
18?	-1391
66?	-1392
▁rf	-1393
▁yw	-1394
▁by	-1395
▁ey	-1396
▁gj	-1397
▁nf	-1398
▁tg	-1399
▁ug	-1400
▁wf	-1401
▁wg	-1402
▁zb	-1403
▁jg	-1404
50?	-1405
▁gy	-1406
▁iy	-1407
▁cr	-1408
▁ny	-1409
▁jb	-1410
▁rg	-1411
▁uf	-1412
43?	-1413
▁gg	-1414
▁wp	-1415
▁cg	-1416
▁df	-1417
▁gp	-1418
▁bp	-1419
▁dj	-1420
▁fg	-1421
▁iw	-1422
▁wj	-1423
▁ww	-1424
▁zy	-1425
▁bg	-1426
▁fy	-1427
▁xg	-1428
▁162	-1429
▁pg	-1430
▁qw	-1431
▁sb	-1432
▁sy	-1433
▁kp	-1434
▁kw	-1435
▁cb	-1436
▁xp	-1437
▁yy	-1438
▁dw	-1439
▁ly	-1440
▁160	-1441
▁dg	-1442
▁yf	-1443
▁ky	-1444
▁cp	-1445
▁vp	-1446
▁yg	-1447
▁ng	-1448
▁hf	-1449
▁zg	-1450
▁158	-1451
▁mg	-1452
▁sw	-1453
▁164	-1454
▁eg	-1455
▁dy	-1456
▁167	-1457
▁zf	-1458
▁165	-1459
▁166	-1460
▁169	-1461
▁in	-1462
▁170	-1463
▁jl	-1464
▁pt	-1465
▁fh	-1466
▁ih	-1467
▁wo	-1468
▁an	-1469
▁fu	-1470
▁ll	-1471
▁168	-1472
▁pd	-1473
▁un	-1474
▁av	-1475
▁bv	-1476
▁tn	-1477
▁dn	-1478
▁ft	-1479
▁gn	-1480
▁hn	-1481
▁kk	-1482
▁lk	-1483
▁pv	-1484
▁171	-1485
▁go	-1486
▁rt	-1487
▁fl	-1488
▁ko	-1489
▁lo	-1490
▁qd	-1491
▁wn	-1492
▁fn	-1493
▁gl	-1494
▁nv	-1495
▁pn	-1496
▁vh	-1497
▁yt	-1498
▁cn	-1499
▁jv	-1500
▁po	-1501
▁cv	-1502
▁dt	-1503
▁hh	-1504
▁hv	-1505
▁nn	-1506
▁ho	-1507
▁jo	-1508
▁qo	-1509
▁zv	-1510
▁gh	-1511
▁on	-1512
▁rn	-1513
▁sv	-1514
▁ut	-1515
▁do	-1516
▁ku	-1517
▁zu	-1518
▁mv	-1519
▁st	-1520
▁vv	-1521
▁yn	-1522
▁co	-1523
▁et	-1524
▁kn	-1525
▁kv	-1526
▁xv	-1527
▁zn	-1528
▁ao	-1529
▁bl	-1530
▁lu	-1531
▁mt	-1532
▁yo	-1533
▁kl	-1534
▁xd	-1535
▁al	-1536
▁bt	-1537
▁qn	-1538
▁wl	-1539
▁ln	-1540
▁mo	-1541
▁ov	-1542
▁ql	-1543
▁rk	-1544
▁ud	-1545
▁vu	-1546
▁xh	-1547
▁dh	-1548
▁ec	-1549
▁lc	-1550
▁lt	-1551
▁to	-1552
▁jd	-1553
▁kh	-1554
▁oo	-1555
▁tt	-1556
▁xn	-1557
▁bc	-1558
▁lv	-1559
▁ph	-1560
▁sh	-1561
▁su	-1562
▁uq	-1563
▁wh	-1564
▁zd	-1565
▁zt	-1566
▁ah	-1567
▁bo	-1568
▁ct	-1569
▁jh	-1570
▁dl	-1571
▁gu	-1572
▁gv	-1573
▁oc	-1574
▁pc	-1575
▁sl	-1576
▁wt	-1577
▁wv	-1578
▁yl	-1579
▁bn	-1580
▁cu	-1581
▁dv	-1582
▁ic	-1583
▁iv	-1584
▁kt	-1585
▁nh	-1586
▁rl	-1587
▁eo	-1588
▁kc	-1589
▁ru	-1590
▁dq	-1591
▁ht	-1592
▁hu	-1593
▁pu	-1594
▁aq	-1595
▁at	-1596
▁bq	-1597
▁nl	-1598
▁oh	-1599
▁ol	-1600
▁ot	-1601
▁qh	-1602
▁qt	-1603
▁wu	-1604
▁zo	-1605
▁173	-1606
▁rv	-1607
▁zh	-1608
▁zk	-1609
▁fk	-1610
▁fv	-1611
▁io	-1612
▁nc	-1613
▁nk	-1614
▁nx	-1615
▁rc	-1616
▁sn	-1617
▁tc	-1618
▁uc	-1619
▁vc	-1620
▁yq	-1621
▁ck	-1622
▁ix	-1623
▁ju	-1624
▁ou	-1625
▁zl	-1626
▁ad	-1627
▁hl	-1628
▁jc	-1629
▁mn	-1630
▁so	-1631
▁yv	-1632
▁cl	-1633
▁ul	-1634
▁uo	-1635
▁xc	-1636
▁xo	-1637
▁yu	-1638
▁yx	-1639
▁cd	-1640
▁hq	-1641
▁id	-1642
▁jk	-1643
▁nt	-1644
▁vk	-1645
▁ac	-1646
▁dx	-1647
▁fq	-1648
▁gt	-1649
▁pl	-1650
▁xl	-1651
▁en	-1652
▁eq	-1653
▁ml	-1654
▁th	-1655
▁bd	-1656
▁dd	-1657
▁fc	-1658
▁kq	-1659
▁bx	-1660
▁cq	-1661
▁ek	-1662
▁il	-1663
▁jt	-1664
▁qc	-1665
▁tv	-1666
▁vt	-1667
▁vx	-1668
▁ch	-1669
▁hx	-1670
▁jq	-1671
▁lh	-1672
▁nd	-1673
▁hd	-1674
▁mh	-1675
▁qx	-1676
▁sc	-1677
▁wd	-1678
▁gd	-1679
▁qu	-1680
▁ro	-1681
▁174	-1682
▁175	-1683
▁cc	-1684
▁jn	-1685
▁qv	-1686
▁rx	-1687
▁sk	-1688
▁tu	-1689
▁xu	-1690
▁zc	-1691
▁ev	-1692
▁fd	-1693
▁iq	-1694
▁it	-1695
▁mx	-1696
▁pq	-1697
▁sd	-1698
▁uu	-1699
▁uv	-1700
▁yh	-1701
▁fo	-1702
▁gc	-1703
▁gk	-1704
▁nu	-1705
▁tx	-1706
▁vd	-1707
▁xk	-1708
▁xx	-1709
▁yk	-1710
▁bu	-1711
▁el	-1712
▁gq	-1713
▁mc	-1714
▁uh	-1715
▁uk	-1716
▁vl	-1717
▁172	-1718
▁ak	-1719
▁ld	-1720
▁mk	-1721
▁sq	-1722
▁vo	-1723
▁wc	-1724
▁au	-1725
▁du	-1726
▁ed	-1727
▁iu	-1728
▁oq	-1729
▁yd	-1730
▁177	-1731
▁eh	-1732
▁kd	-1733
▁rd	-1734
▁lx	-1735
▁ox	-1736
▁vn	-1737
▁vq	-1738
▁bh	-1739
▁lq	-1740
▁md	-1741
▁qk	-1742
▁sx	-1743
▁tq	-1744
▁bk	-1745
▁ik	-1746
▁pk	-1747
▁zx	-1748
▁wk	-1749
▁mu	-1750
▁qq	-1751
▁tk	-1752
▁tl	-1753
▁wq	-1754
▁xq	-1755
▁eu	-1756
▁ax	-1757
▁hc	-1758
▁od	-1759
▁yc	-1760
▁ex	-1761
▁wx	-1762
▁zq	-1763
▁dk	-1764
▁rq	-1765
▁cx	-1766
▁gx	-1767
▁rh	-1768
▁td	-1769
▁176	-1770
▁fx	-1771
▁dc	-1772
▁mq	-1773
▁ux	-1774
▁hk	-1775
▁kx	-1776
▁180	-1777
▁jx	-1778
▁ok	-1779
▁181	-1780
▁px	-1781
▁179	-1782
▁nq	-1783
▁178	-1784
▁182	-1785
▁183	-1786
▁184	-1787
▁185	-1788
▁186	-1789
▁187	-1790
▁864	-1791
▁971	-1792
▁930	-1793
▁900	-1794
▁990	-1795
▁842	-1796
▁908	-1797
▁188	-1798
▁988	-1799
▁962	-1800
▁874	-1801
▁972	-1802
▁189	-1803
▁192	-1804
▁905	-1805
▁849	-1806
▁954	-1807
▁975	-1808
▁833	-1809
▁885	-1810
▁884	-1811
▁940	-1812
▁986	-1813
▁831	-1814
▁882	-1815
▁928	-1816
▁932	-1817
▁959	-1818
▁961	-1819
▁996	-1820
▁914	-1821
▁927	-1822
▁946	-1823
▁951	-1824
▁976	-1825
▁989	-1826
▁880	-1827
▁926	-1828
▁939	-1829
▁957	-1830
▁777	-1831
▁850	-1832
▁953	-1833
▁992	-1834
▁998	-1835
▁713	-1836
▁839	-1837
▁919	-1838
▁944	-1839
▁947	-1840
▁802	-1841
▁893	-1842
▁960	-1843
▁980	-1844
▁987	-1845
+13?	-1846
▁194	-1847
▁735	-1848
▁751	-1849
▁792	-1850
▁834	-1851
▁852	-1852
▁865	-1853
▁895	-1854
▁902	-1855
▁937	-1856
▁966	-1857
▁974	-1858
▁994	-1859
▁690	-1860
▁714	-1861
▁845	-1862
▁911	-1863
▁912	-1864
▁955	-1865
▁984	-1866
▁710	-1867
▁743	-1868
▁746	-1869
▁750	-1870
▁773	-1871
▁798	-1872
▁818	-1873
▁829	-1874
▁855	-1875
▁867	-1876
▁890	-1877
▁922	-1878
▁925	-1879
▁965	-1880
▁797	-1881
▁876	-1882
▁892	-1883
▁934	-1884
▁941	-1885
▁979	-1886
▁843	-1887
▁897	-1888
▁906	-1889
▁918	-1890
▁920	-1891
▁931	-1892
▁933	-1893
▁949	-1894
▁952	-1895
▁991	-1896
+186?	-1897
▁191	-1898
▁679	-1899
▁756	-1900
▁879	-1901
▁917	-1902
▁958	-1903
▁692	-1904
▁717	-1905
▁819	-1906
▁837	-1907
▁853	-1908
▁878	-1909
▁886	-1910
▁913	-1911
▁685	-1912
▁733	-1913
▁840	-1914
▁924	-1915
▁938	-1916
▁950	-1917
▁964	-1918
▁967	-1919
▁993	-1920
+387?	-1921
+596?	-1922
▁700	-1923
▁721	-1924
▁811	-1925
▁838	-1926
▁844	-1927
▁868	-1928
▁891	-1929
▁909	-1930
▁915	-1931
▁970	-1932
▁981	-1933
▁985	-1934
+507?	-1935
lbr	-1936
▁642	-1937
▁674	-1938
▁724	-1939
▁737	-1940
▁759	-1941
▁776	-1942
▁791	-1943
▁808	-1944
▁823	-1945
▁856	-1946
▁873	-1947
▁881	-1948
▁935	-1949
▁963	-1950
+179?	-1951
+368?	-1952
qis	-1953
▁699	-1954
▁716	-1955
▁763	-1956
▁799	-1957
▁832	-1958
▁862	-1959
▁887	-1960
▁888	-1961
▁899	-1962
▁903	-1963
▁921	-1964
▁978	-1965
▁999	-1966
+516?	-1967
+520?	-1968
+5?	-1969
▁585	-1970
▁738	-1971
▁757	-1972
▁793	-1973
▁800	-1974
▁805	-1975
▁826	-1976
▁907	-1977
▁956	-1978
▁973	-1979
▁977	-1980
+175?	-1981
+845?	-1982
+865?	-1983
▁539	-1984
▁637	-1985
▁696	-1986
▁703	-1987
▁704	-1988
▁741	-1989
▁753	-1990
▁764	-1991
▁783	-1992
▁785	-1993
▁815	-1994
▁824	-1995
▁896	-1996
▁901	-1997
▁904	-1998
▁936	-1999
▁969	-2000
▁995	-2001
+365?	-2002
▁462	-2003
▁572	-2004
▁644	-2005
▁782	-2006
▁809	-2007
▁861	-2008
▁875	-2009
▁982	-2010
+317?	-2011
+376?	-2012
+524?	-2013
+32?	-2014
▁628	-2015
▁649	-2016
▁653	-2017
▁664	-2018
▁708	-2019
▁726	-2020
▁732	-2021
▁744	-2022
▁760	-2023
▁780	-2024
▁786	-2025
▁790	-2026
▁804	-2027
▁812	-2028
▁830	-2029
▁858	-2030
▁859	-2031
▁894	-2032
▁997	-2033
+176?	-2034
+332?	-2035
▁1037	-2036
+17?	-2037
▁544	-2038
▁676	-2039
▁691	-2040
▁736	-2041
▁747	-2042
▁771	-2043
▁788	-2044
▁810	-2045
▁813	-2046
▁827	-2047
▁836	-2048
▁889	-2049
+107?	-2050
+395?	-2051
+569?	-2052
xzm	-2053
+33?	-2054
+54?	-2055
▁542	-2056
▁682	-2057
▁754	-2058
▁766	-2059
▁767	-2060
▁778	-2061
▁807	-2062
▁828	-2063
▁854	-2064
▁863	-2065
▁869	-2066
+122?	-2067
+199?	-2068
+313?	-2069
+899?	-2070
▁1027	-2071
nms	-2072
tem	-2073
ujs	-2074
xis	-2075
▁190	-2076
▁495	-2077
▁583	-2078
▁588	-2079
▁608	-2080
▁643	-2081
▁666	-2082
▁688	-2083
▁706	-2084
▁707	-2085
▁730	-2086
▁752	-2087
▁768	-2088
▁794	-2089
▁814	-2090
▁848	-2091
▁923	-2092
+134?	-2093
+142?	-2094
+198?	-2095
+835?	-2096
oma	-2097
qbj	-2098
▁547	-2099
▁582	-2100
▁614	-2101
▁616	-2102
▁620	-2103
▁632	-2104
▁646	-2105
▁654	-2106
▁667	-2107
▁668	-2108
▁705	-2109
▁761	-2110
▁775	-2111
▁898	-2112
▁916	-2113
▁942	-2114
▁943	-2115
▁948	-2116
▁968	-2117
▁983	-2118
+101?	-2119
+109?	-2120
+343?	-2121
+557?	-2122
+820?	-2123
+843?	-2124
+871?	-2125
+886?	-2126
▁1048	-2127
caz	-2128
dee	-2129
lss	-2130
▁356	-2131
▁484	-2132
▁499	-2133
▁555	-2134
▁577	-2135
▁591	-2136
▁597	-2137
▁623	-2138
▁624	-2139
▁678	-2140
▁684	-2141
▁728	-2142
▁784	-2143
▁787	-2144
▁841	-2145
▁860	-2146
▁910	-2147
+166?	-2148
+370?	-2149
+382?	-2150
+505?	-2151
+531?	-2152
cge	-2153
nrr	-2154
tee	-2155
▁489	-2156
▁501	-2157
▁536	-2158
▁600	-2159
▁605	-2160
▁610	-2161
▁636	-2162
▁669	-2163
▁673	-2164
▁681	-2165
▁709	-2166
▁723	-2167
▁765	-2168
▁803	-2169
▁857	-2170
+120?	-2171
+328?	-2172
+345?	-2173
+525?	-2174
+539?	-2175
+541?	-2176
+558?	-2177
+584?	-2178
+814?	-2179
+836?	-2180
+895?	-2181
▁1019	-2182
▁1063	-2183
cev	-2184
hwe	-2185
uij	-2186
xga	-2187
xjr	-2188
▁455	-2189
▁525	-2190
▁598	-2191
▁641	-2192
▁687	-2193
▁715	-2194
▁725	-2195
▁796	-2196
▁851	-2197
▁866	-2198
▁870	-2199
+327?	-2200
+540?	-2201
+875?	-2202
+891?	-2203
▁1036	-2204
▁1067	-2205
▁1075	-2206
kje	-2207
lbm	-2208
lrz	-2209
nmz	-2210
qrr	-2211
qrs	-2212
qwz	-2213
uew	-2214
ufe	-2215
vpz	-2216
vyz	-2217
▁193	-2218
▁496	-2219
▁512	-2220
▁584	-2221
▁590	-2222
▁627	-2223
▁640	-2224
▁650	-2225
▁659	-2226
▁660	-2227
▁662	-2228
▁675	-2229
▁731	-2230
▁734	-2231
▁762	-2232
▁781	-2233
▁789	-2234
▁806	-2235
▁816	-2236
▁817	-2237
▁820	-2238
▁822	-2239
▁835	-2240
+103?	-2241
+115?	-2242
+147?	-2243
+154?	-2244
+173?	-2245
+192?	-2246
+304?	-2247
+308?	-2248
+518?	-2249
+532?	-2250
+537?	-2251
+580?	-2252
+597?	-2253
cym	-2254
hfi	-2255
hjp	-2256
kae	-2257
kbr	-2258
kmm	-2259
kwa	-2260
nfw	-2261
nin	-2262
oba	-2263
qjy	-2264
twa	-2265
uzz	-2266
vma	-2267
xme	-2268
+52?	-2269
+84?	-2270
▁383	-2271
▁393	-2272
▁516	-2273
▁576	-2274
▁629	-2275
▁638	-2276
▁656	-2277
▁658	-2278
▁683	-2279
▁702	-2280
▁720	-2281
▁727	-2282
▁740	-2283
▁748	-2284
▁772	-2285
▁877	-2286
+135?	-2287
+171?	-2288
+334?	-2289
+336?	-2290
+360?	-2291
+599?	-2292
+805?	-2293
+813?	-2294
+819?	-2295
hgz	-2296
kib	-2297
kiz	-2298
lfm	-2299
lge	-2300
oiz	-2301
oyw	-2302
tsy	-2303
ufa	-2304
upz	-2305
vab	-2306
vwf	-2307
vza	-2308
xgy	-2309
▁506	-2310
▁513	-2311
▁514	-2312
▁523	-2313
▁558	-2314
▁568	-2315
▁570	-2316
▁581	-2317
▁589	-2318
▁596	-2319
▁601	-2320
▁607	-2321
▁625	-2322
▁657	-2323
▁671	-2324
▁680	-2325
▁745	-2326
▁755	-2327
▁758	-2328
▁770	-2329
▁801	-2330
▁821	-2331
▁872	-2332
+124?	-2333
+131?	-2334
+132?	-2335
+160?	-2336
+311?	-2337
+344?	-2338
+353?	-2339
+371?	-2340
+377?	-2341
+385?	-2342
+503?	-2343
+504?	-2344
+828?	-2345
▁1021	-2346
▁1022	-2347
▁1028	-2348
▁1050	-2349
cfi	-2350
cgg	-2351
cys	-2352
dbj	-2353
dbz	-2354
kge	-2355
kji	-2356
lfs	-2357
ljm	-2358
niw	-2359
sez	-2360
tpe	-2361
tsz	-2362
tzm	-2363
usn	-2364
vpm	-2365
vya	-2366
+37?	-2367
+82?	-2368
▁528	-2369
▁593	-2370
▁648	-2371
▁694	-2372
▁697	-2373
▁729	-2374
▁774	-2375
▁795	-2376
▁825	-2377
▁945	-2378
+123?	-2379
+137?	-2380
+162?	-2381
+190?	-2382
+326?	-2383
+362?	-2384
+389?	-2385
+397?	-2386
+502?	-2387
+579?	-2388
+585?	-2389
+586?	-2390
+852?	-2391
+855?	-2392
+858?	-2393
+878?	-2394
▁1002	-2395
▁1009	-2396
▁1042	-2397
▁1149	-2398
cab	-2399
cwj	-2400
dwy	-2401
dzm	-2402
hzg	-2403
kry	-2404
lef	-2405
lei	-2406
lia	-2407
oap	-2408
oji	-2409
oze	-2410
qws	-2411
upe	-2412
vem	-2413
vii	-2414
vmf	-2415
vzs	-2416
+31?	-2417
+85?	-2418
+87?	-2419
▁418	-2420
▁500	-2421
▁503	-2422
▁550	-2423
▁621	-2424
▁663	-2425
▁719	-2426
▁846	-2427
+108?	-2428
+129?	-2429
+157?	-2430
+191?	-2431
+194?	-2432
+338?	-2433
+347?	-2434
+367?	-2435
+383?	-2436
+396?	-2437
+517?	-2438
+538?	-2439
+547?	-2440
+551?	-2441
+559?	-2442
+565?	-2443
+577?	-2444
+844?	-2445
+859?	-2446
+868?	-2447
▁1001	-2448
▁1056	-2449
▁1057	-2450
▁1121	-2451
cpm	-2452
cws	-2453
daw	-2454
hjf	-2455
hra	-2456
krm	-2457
lmb	-2458
lpi	-2459
nbi	-2460
ner	-2461
nig	-2462
njw	-2463
nsi	-2464
oew	-2465
qbz	-2466
qfj	-2467
qjp	-2468
taa	-2469
uea	-2470
uez	-2471
ufm	-2472
umr	-2473
vgs	-2474
vjr	-2475
+12?	-2476
+34?	-2477
+50?	-2478
▁405	-2479
▁430	-2480
▁454	-2481
▁466	-2482
▁556	-2483
▁562	-2484
▁595	-2485
▁665	-2486
▁693	-2487
▁742	-2488
+126?	-2489
+128?	-2490
+163?	-2491
+357?	-2492
+372?	-2493
+500?	-2494
+553?	-2495
+589?	-2496
+827?	-2497
+883?	-2498
+885?	-2499
+892?	-2500
+894?	-2501
▁1017	-2502
▁1045	-2503
▁1087	-2504
▁1102	-2505
▁1147	-2506
cai	-2507
csi	-2508
csm	-2509
czm	-2510
czz	-2511
dez	-2512
die	-2513
dvh	-2514
dys	-2515
hjo	-2516
hzi	-2517
lzs	-2518
nra	-2519
nsz	-2520
omm	-2521
omz	-2522
opp	-2523
orf	-2524
ors	-2525
qae	-2526
qfi	-2527
qsm	-2528
qzy	-2529
tbe	-2530
tfz	-2531
ubh	-2532
ubp	-2533
uff	-2534
ufp	-2535
uiy	-2536
uss	-2537
uya	-2538
vif	-2539
vja	-2540
vjk	-2541
vym	-2542
xez	-2543
xty	-2544
+11?	-2545
+38?	-2546
▁406	-2547
▁442	-2548
▁456	-2549
▁498	-2550
▁529	-2551
▁531	-2552
▁553	-2553
▁630	-2554
▁633	-2555
▁651	-2556
▁652	-2557
▁686	-2558
▁695	-2559
▁847	-2560
▁883	-2561
+111?	-2562
+119?	-2563
+146?	-2564
+148?	-2565
+153?	-2566
+165?	-2567
+303?	-2568
+320?	-2569
+322?	-2570
+350?	-2571
+356?	-2572
+384?	-2573
+508?	-2574
+523?	-2575
+542?	-2576
+574?	-2577
+592?	-2578
+822?	-2579
+856?	-2580
+872?	-2581
+890?	-2582
▁1051	-2583
▁1053	-2584
▁1062	-2585
▁1090	-2586
▁1162	-2587
ces	-2588
cfs	-2589
cga	-2590
cja	-2591
cmi	-2592
cwi	-2593
cww	-2594
dar	-2595
djf	-2596
dvu	-2597
dwe	-2598
dyg	-2599
her	-2600
hfe	-2601
hmi	-2602
kba	-2603
kfk	-2604
kws	-2605
lis	-2606
lsz	-2607
lyr	-2608
lzj	-2609
nem	-2610
nfg	-2611
njj	-2612
nrs	-2613
oib	-2614
omr	-2615
orm	-2616
owi	-2617
qab	-2618
qbw	-2619
qie	-2620
qpe	-2621
ugm	-2622
uia	-2623
vga	-2624
vjs	-2625
vsz	-2626
xjy	-2627
xpe	-2628
xya	-2629
+56?	-2630
+58?	-2631
+59?	-2632
▁328	-2633
▁386	-2634
▁395	-2635
▁422	-2636
▁468	-2637
▁526	-2638
▁532	-2639
▁567	-2640
▁587	-2641
▁602	-2642
▁606	-2643
▁618	-2644
▁634	-2645
▁655	-2646
▁670	-2647
▁672	-2648
+118?	-2649
+177?	-2650
+335?	-2651
+366?	-2652
+535?	-2653
+544?	-2654
+556?	-2655
+576?	-2656
+588?	-2657
+800?	-2658
+831?	-2659
+860?	-2660
+881?	-2661
▁1008	-2662
▁1074	-2663
▁1106	-2664
▁1140	-2665
+0?	-2666
cbp	-2667
cjp	-2668
dwm	-2669
hem	-2670
hpe	-2671
hwy	-2672
hzm	-2673
kaz	-2674
kgi	-2675
ksa	-2676
nbm	-2677
ngm	-2678
nmj	-2679
nrj	-2680
nro	-2681
nwp	-2682
nyt	-2683
nza	-2684
oae	-2685
oeg	-2686
qfa	-2687
qfe	-2688
qiz	-2689
qji	-2690
qre	-2691
sep	-2692
ter	-2693
tgm	-2694
tpi	-2695
uaw	-2696
ubi	-2697
ubo	-2698
uby	-2699
ugw	-2700
uie	-2701
uri	-2702
usj	-2703
uzj	-2704
vfa	-2705
vji	-2706
xar	-2707
xas	-2708
xbe	-2709
xfe	-2710
xrg	-2711
xrw	-2712
+80?	-2713
▁437	-2714
▁443	-2715
▁446	-2716
▁515	-2717
▁540	-2718
▁574	-2719
▁592	-2720
▁594	-2721
▁615	-2722
▁645	-2723
▁647	-2724
▁698	-2725
+121?	-2726
+125?	-2727
+130?	-2728
+196?	-2729
+310?	-2730
+312?	-2731
+333?	-2732
+342?	-2733
+399?	-2734
+530?	-2735
+543?	-2736
+811?	-2737
+818?	-2738
+850?	-2739
+882?	-2740
▁1015	-2741
▁1020	-2742
▁1055	-2743
▁1132	-2744
+1?	-2745
cbe	-2746
cmj	-2747
cze	-2748
hfz	-2749
his	-2750
hpm	-2751
hsb	-2752
hwr	-2753
kbz	-2754
kjm	-2755
kjo	-2756
kmz	-2757
kwi	-2758
laf	-2759
lbj	-2760
lff	-2761
liy	-2762
lsl	-2763
nmw	-2764
npz	-2765
nyr	-2766
oez	-2767
oip	-2768
qaz	-2769
qgm	-2770
qjr	-2771
qpr	-2772
qsz	-2773
qzw	-2774
tiy	-2775
tji	-2776
ugf	-2777
ujz	-2778
upn	-2779
usi	-2780
uwb	-2781
vbg	-2782
veb	-2783
vfg	-2784
vfs	-2785
vjw	-2786
vpi	-2787
vyy	-2788
xbg	-2789
xji	-2790
xtp	-2791
+14?	-2792
▁374	-2793
▁421	-2794
▁470	-2795
▁530	-2796
▁545	-2797
▁548	-2798
▁565	-2799
▁566	-2800
▁571	-2801
▁580	-2802
▁617	-2803
▁626	-2804
▁711	-2805
▁769	-2806
▁779	-2807
+112?	-2808
+117?	-2809
+139?	-2810
+149?	-2811
+300?	-2812
+305?	-2813
+309?	-2814
+340?	-2815
+355?	-2816
+515?	-2817
+519?	-2818
+533?	-2819
+567?	-2820
+568?	-2821
+572?	-2822
+851?	-2823
+879?	-2824
+896?	-2825
▁1010	-2826
▁1013	-2827
▁1014	-2828
▁1016	-2829
▁1018	-2830
▁1040	-2831
▁1082	-2832
▁1085	-2833
▁1119	-2834
▁1124	-2835
▁1141	-2836
▁1150	-2837
cbr	-2838
cjz	-2839
cra	-2840
cwf	-2841
czj	-2842
dfs	-2843
dfy	-2844
dis	-2845
djs	-2846
dwi	-2847
dwr	-2848
dyi	-2849
dyr	-2850
hbw	-2851
hbz	-2852
hfa	-2853
hie	-2854
hma	-2855
kas	-2856
kia	-2857
kie	-2858
kig	-2859
kja	-2860
kjs	-2861
kwb	-2862
kzw	-2863
lea	-2864
leb	-2865
lez	-2866
lpj	-2867
lwg	-2868
lyi	-2869
lyp	-2870
nip	-2871
npp	-2872
nwe	-2873
nwf	-2874
nzw	-2875
oaf	-2876
oem	-2877
osi	-2878
owb	-2879
oyj	-2880
qbi	-2881
qez	-2882
qfy	-2883
qjm	-2884
qsj	-2885
tgi	-2886
tjw	-2887
tms	-2888
tmy	-2889
tza	-2890
uai	-2891
uim	-2892
ukx	-2893
usz	-2894
uwz	-2895
vai	-2896
vpf	-2897
vre	-2898
vzf	-2899
vzi	-2900
xeb	-2901
xgj	-2902
xgw	-2903
xsf	-2904
xwa	-2905
+81?	-2906
▁197	-2907
▁330	-2908
▁384	-2909
▁469	-2910
▁471	-2911
▁473	-2912
▁477	-2913
▁492	-2914
▁507	-2915
▁561	-2916
▁573	-2917
▁579	-2918
▁609	-2919
▁612	-2920
▁722	-2921
▁929	-2922
+106?	-2923
+140?	-2924
+155?	-2925
+158?	-2926
+169?	-2927
+182?	-2928
+302?	-2929
+321?	-2930
+325?	-2931
+330?	-2932
+364?	-2933
+369?	-2934
+381?	-2935
+390?	-2936
+398?	-2937
+501?	-2938
+529?	-2939
+545?	-2940
+564?	-2941
+570?	-2942
+583?	-2943
+587?	-2944
+804?	-2945
+812?	-2946
+823?	-2947
+824?	-2948
+826?	-2949
+854?	-2950
+888?	-2951
▁1041	-2952
▁1065	-2953
▁1069	-2954
▁1081	-2955
▁1112	-2956
▁1154	-2957
▁1157	-2958
▁1161	-2959
▁1181	-2960
▁1240	-2961
cbg	-2962
cer	-2963
cmw	-2964
djr	-2965
dsm	-2966
har	-2967
hmr	-2968
hpf	-2969
laj	-2970
lfi	-2971
lfw	-2972
lmi	-2973
lpt	-2974
npa	-2975
nwv	-2976
oey	-2977
ogr	-2978
ogy	-2979
ojm	-2980
opi	-2981
opy	-2982
owf	-2983
qaf	-2984
qam	-2985
qrw	-2986
qzi	-2987
see	-2988
tfg	-2989
twz	-2990
ume	-2991
upf	-2992
upr	-2993
uyj	-2994
vbj	-2995
vej	-2996
vgm	-2997
vib	-2998
vie	-2999
vju	-3000
vmi	-3001
vms	-3002
vpa	-3003
vps	-3004
vrp	-3005
vzw	-3006
xba	-3007
xbi	-3008
xee	-3009
xgi	-3010
xgm	-3011
xgz	-3012
xim	-3013
xip	-3014
xsp	-3015
xsy	-3016
xww	-3017
xyi	-3018
xzt	-3019
+16?	-3020
▁271	-3021
▁433	-3022
▁453	-3023
▁474	-3024
▁510	-3025
▁524	-3026
▁534	-3027
▁552	-3028
▁560	-3029
▁604	-3030
▁613	-3031
▁739	-3032
+150?	-3033
+151?	-3034
+197?	-3035
+301?	-3036
+315?	-3037
+316?	-3038
+349?	-3039
+512?	-3040
+563?	-3041
+802?	-3042
+825?	-3043
+839?	-3044
+840?	-3045
+863?	-3046
+869?	-3047
+887?	-3048
▁1003	-3049
▁1004	-3050
▁1029	-3051
▁1038	-3052
▁1054	-3053
▁1068	-3054
▁1079	-3055
▁1101	-3056
▁1111	-3057
cej	-3058
cgz	-3059
cme	-3060
csj	-3061
cwr	-3062
dbm	-3063
der	-3064
dga	-3065
diw	-3066
dji	-3067
dmg	-3068
dre	-3069
dsz	-3070
dwa	-3071
hea	-3072
hfs	-3073
hjj	-3074
hmf	-3075
hrz	-3076
hsz	-3077
kai	-3078
kbw	-3079
kej	-3080
kex	-3081
kfw	-3082
kii	-3083
kpd	-3084
kwe	-3085
leg	-3086
lfb	-3087
lgm	-3088
lmz	-3089
lwz	-3090
lzw	-3091
nfz	-3092
nij	-3093
njs	-3094
nma	-3095
nmf	-3096
nss	-3097
nwm	-3098
obb	-3099
oej	-3100
ofi	-3101
ogv	-3102
ojr	-3103
osw	-3104
ozm	-3105
qej	-3106
qmz	-3107
qry	-3108
qwa	-3109
qww	-3110
sej	-3111
tba	-3112
tei	-3113
tfm	-3114
tgr	-3115
tjj	-3116
twf	-3117
uej	-3118
upp	-3119
uwi	-3120
var	-3121
vbr	-3122
vge	-3123
vgi	-3124
vij	-3125
vjd	-3126
vsa	-3127
vwa	-3128
vwb	-3129
vyf	-3130
vyi	-3131
vzr	-3132
xbm	-3133
xgr	-3134
xia	-3135
xmj	-3136
xre	-3137
xrm	-3138
xss	-3139
xsw	-3140
+35?	-3141
+36?	-3142
▁195	-3143
▁338	-3144
▁388	-3145
▁414	-3146
▁502	-3147
▁504	-3148
▁521	-3149
▁578	-3150
▁611	-3151
▁712	-3152
▁871	-3153
+113?	-3154
+138?	-3155
+319?	-3156
+394?	-3157
+521?	-3158
+560?	-3159
+594?	-3160
+807?	-3161
+809?	-3162
+815?	-3163
+834?	-3164
+870?	-3165
▁1024	-3166
▁1034	-3167
▁1049	-3168
▁1061	-3169
▁1064	-3170
▁1072	-3171
▁1083	-3172
▁1127	-3173
▁1183	-3174
▁1189	-3175
+3?	-3176
cbi	-3177
cgq	-3178
cib	-3179
ciw	-3180
cjs	-3181
cpz	-3182
crr	-3183
csw	-3184
ctk	-3185
cyg	-3186
dah	-3187
dbe	-3188
dbw	-3189
dir	-3190
dje	-3191
djj	-3192
dma	-3193
dwb	-3194
dzy	-3195
hge	-3196
hiv	-3197
hje	-3198
hme	-3199
hpi	-3200
hzy	-3201
key	-3202
kfa	-3203
kgm	-3204
kmf	-3205
ksb	-3206
ksi	-3207
kyw	-3208
kzr	-3209
liw	-3210
ljd	-3211
lpm	-3212
lsw	-3213
lze	-3214
naa	-3215
niz	-3216
nje	-3217
nsf	-3218
nsm	-3219
nsp	-3220
nwy	-3221
nym	-3222
oia	-3223
oiw	-3224
oje	-3225
opj	-3226
oso	-3227
oym	-3228
ozr	-3229
qbs	-3230
qey	-3231
qgj	-3232
qln	-3233
qme	-3234
qza	-3235
qzj	-3236
seb	-3237
tbm	-3238
tby	-3239
tig	-3240
tii	-3241
tip	-3242
tmk	-3243
tra	-3244
tre	-3245
tzr	-3246
uap	-3247
ueo	-3248
uip	-3249
upb	-3250
ure	-3251
uzg	-3252
vam	-3253
vaw	-3254
vbe	-3255
viw	-3256
viz	-3257
vjg	-3258
vpw	-3259
vra	-3260
vrg	-3261
vrr	-3262
xbj	-3263
xev	-3264
xff	-3265
xfy	-3266
xfz	-3267
xgp	-3268
xie	-3269
xig	-3270
xii	-3271
xsb	-3272
xsi	-3273
xtj	-3274
xwe	-3275
xys	-3276
+10?	-3277
+53?	-3278
+57?	-3279
+86?	-3280
+88?	-3281
+89?	-3282
▁380	-3283
▁419	-3284
▁431	-3285
▁472	-3286
▁511	-3287
▁551	-3288
+174?	-3289
+187?	-3290
+188?	-3291
+306?	-3292
+363?	-3293
+375?	-3294
+386?	-3295
+527?	-3296
+546?	-3297
+550?	-3298
+595?	-3299
+832?	-3300
+873?	-3301
+877?	-3302
▁1025	-3303
▁1030	-3304
▁1039	-3305
▁1047	-3306
▁1084	-3307
▁1089	-3308
▁1107	-3309
▁1142	-3310
▁1155	-3311
▁1156	-3312
▁1175	-3313
▁1298	-3314
cis	-3315
clt	-3316
cmg	-3317
cyy	-3318
dae	-3319
dib	-3320
dmf	-3321
dpg	-3322
dsy	-3323
hbi	-3324
hes	-3325
hii	-3326
hji	-3327
hjr	-3328
hms	-3329
hmw	-3330
hpa	-3331
hsm	-3332
kaw	-3333
kbe	-3334
kei	-3335
ken	-3336
kil	-3337
kmg	-3338
kpe	-3339
kps	-3340
kre	-3341
krz	-3342
ksj	-3343
kvd	-3344
kwf	-3345
law	-3346
lfr	-3347
lsp	-3348
lwi	-3349
lya	-3350
lye	-3351
nab	-3352
naf	-3353
naj	-3354
nam	-3355
neb	-3356
nfi	-3357
nfr	-3358
ngi	-3359
ngn	-3360
npf	-3361
nps	-3362
nri	-3363
nwa	-3364
nwj	-3365
nwr	-3366
nwz	-3367
nyi	-3368
oar	-3369
oaw	-3370
ojp	-3371
opb	-3372
osr	-3373
owr	-3374
ozi	-3375
qbm	-3376
qbr	-3377
qeb	-3378
qga	-3379
qmg	-3380
qrz	-3381
qsf	-3382
qzp	-3383
tag	-3384
tbb	-3385
tbi	-3386
tfr	-3387
tsg	-3388
tyr	-3389
uae	-3390
ubf	-3391
uiz	-3392
ujy	-3393
uyy	-3394
uzi	-3395
vbs	-3396
vbz	-3397
vjf	-3398
vjp	-3399
vmm	-3400
vmz	-3401
vww	-3402
vyj	-3403
xbs	-3404
xfr	-3405
xjj	-3406
xmm	-3407
xov	-3408
xsa	-3409
xsg	-3410
xts	-3411
xyy	-3412
+30?	-3413
▁306	-3414
▁337	-3415
▁348	-3416
▁435	-3417
▁445	-3418
▁452	-3419
▁483	-3420
▁509	-3421
▁517	-3422
▁533	-3423
▁537	-3424
▁538	-3425
▁586	-3426
▁622	-3427
▁635	-3428
▁639	-3429
▁689	-3430
▁701	-3431
+105?	-3432
+184?	-3433
+318?	-3434
+331?	-3435
+346?	-3436
+351?	-3437
+354?	-3438
+359?	-3439
+374?	-3440
+590?	-3441
+808?	-3442
+833?	-3443
+837?	-3444
+846?	-3445
+857?	-3446
▁1007	-3447
▁1011	-3448
▁1033	-3449
▁1044	-3450
▁1094	-3451
▁1109	-3452
▁1122	-3453
▁1135	-3454
▁1193	-3455
▁1222	-3456
cba	-3457
cbw	-3458
cfp	-3459
cfz	-3460
cgb	-3461
cgs	-3462
cia	-3463
cif	-3464
cjg	-3465
cjm	-3466
clc	-3467
cnl	-3468
cpj	-3469
cpo	-3470
cpw	-3471
crb	-3472
cre	-3473
csz	-3474
cyc	-3475
day	-3476
daz	-3477
dei	-3478
deu	-3479
dfe	-3480
dgj	-3481
dgt	-3482
dik	-3483
doo	-3484
dwj	-3485
dya	-3486
dyb	-3487
hag	-3488
haj	-3489
has	-3490
hfy	-3491
hgb	-3492
hgj	-3493
hiz	-3494
hjt	-3495
hrj	-3496
hya	-3497
hye	-3498
kaj	-3499
kbs	-3500
keb	-3501
kem	-3502
kfi	-3503
kfy	-3504
kif	-3505
kma	-3506
kmj	-3507
kmr	-3508
kwl	-3509
kyb	-3510
kza	-3511
kzs	-3512
lae	-3513
lbb	-3514
lfy	-3515
lgi	-3516
lgj	-3517
lpf	-3518
naq	-3519
nay	-3520
nbs	-3521
ngz	-3522
nsc	-3523
nyh	-3524
nzm	-3525
oge	-3526
ogl	-3527
ogm	-3528
ois	-3529
omt	-3530
opz	-3531
owe	-3532
oww	-3533
qaw	-3534
qio	-3535
qjg	-3536
qjj	-3537
qjw	-3538
qkk	-3539
qmr	-3540
qpw	-3541
qpy	-3542
qrx	-3543
qsg	-3544
qsw	-3545
qys	-3546
ser	-3547
tae	-3548
ten	-3549
tep	-3550
tgz	-3551
tja	-3552
uba	-3553
ugq	-3554
umb	-3555
urv	-3556
usl	-3557
usy	-3558
uvd	-3559
uzr	-3560
vee	-3561
vfz	-3562
vgg	-3563
vgr	-3564
vim	-3565
vjm	-3566
vmr	-3567
vsm	-3568
vzc	-3569
vze	-3570
wji	-3571
xen	-3572
xgd	-3573
xgs	-3574
xri	-3575
xtr	-3576
xwn	-3577
xyj	-3578
xzg	-3579
▁236	-3580
▁307	-3581
▁390	-3582
▁402	-3583
▁410	-3584
▁415	-3585
▁451	-3586
▁475	-3587
▁490	-3588
▁546	-3589
▁554	-3590
▁603	-3591
▁677	-3592
+104?	-3593
+127?	-3594
+136?	-3595
+143?	-3596
+145?	-3597
+152?	-3598
+156?	-3599
+168?	-3600
+170?	-3601
+180?	-3602
+185?	-3603
+352?	-3604
+358?	-3605
+379?	-3606
+509?	-3607
+514?	-3608
+528?	-3609
+534?	-3610
+554?	-3611
+566?	-3612
+810?	-3613
+853?	-3614
+866?	-3615
+884?	-3616
▁1026	-3617
▁1031	-3618
▁1060	-3619
▁1066	-3620
▁1099	-3621
▁1130	-3622
▁1167	-3623
▁1238	-3624
cgc	-3625
cgp	-3626
cje	-3627
cjy	-3628
cmh	-3629
cok	-3630
cpn	-3631
cwa	-3632
cwb	-3633
cyt	-3634
czs	-3635
dbi	-3636
dbr	-3637
dej	-3638
dgb	-3639
dgo	-3640
dia	-3641
dig	-3642
dih	-3643
dja	-3644
dmm	-3645
dmr	-3646
dpr	-3647
drr	-3648
drv	-3649
drw	-3650
dsd	-3651
dwp	-3652
dye	-3653
dym	-3654
dzs	-3655
dzz	-3656
hbr	-3657
hgw	-3658
him	-3659
hiu	-3660
hjh	-3661
hmb	-3662
hmp	-3663
hpw	-3664
hrf	-3665
hrn	-3666
hrs	-3667
hwb	-3668
hwh	-3669
hws	-3670
hzj	-3671
hzp	-3672
kac	-3673
kbv	-3674
kht	-3675
kic	-3676
kjj	-3677
kld	-3678
kpg	-3679
kpr	-3680
kss	-3681
kwp	-3682
kym	-3683
kzm	-3684
lab	-3685
lbs	-3686
lby	-3687
lga	-3688
lgy	-3689
ljg	-3690
lpd	-3691
lsr	-3692
lwd	-3693
lym	-3694
lyw	-3695
nbb	-3696
nbe	-3697
nee	-3698
nez	-3699
ngp	-3700
nwl	-3701
nys	-3702
nyy	-3703
nzk	-3704
nzp	-3705
nzt	-3706
obr	-3707
oef	-3708
off	-3709
ofl	-3710
ofm	-3711
ogj	-3712
oih	-3713
oii	-3714
oir	-3715
ojb	-3716
ojf	-3717
omf	-3718
omp	-3719
orp	-3720
osj	-3721
ozw	-3722
qeg	-3723
qfm	-3724
qhn	-3725
qif	-3726
qii	-3727
qmj	-3728
qra	-3729
qrt	-3730
qvk	-3731
qwr	-3732
qyg	-3733
qyh	-3734
qyw	-3735
tfe	-3736
tgf	-3737
tir	-3738
tjr	-3739
tmv	-3740
tpf	-3741
tsj	-3742
ubb	-3743
ubz	-3744
ufr	-3745
ugo	-3746
ugz	-3747
uii	-3748
umj	-3749
uod	-3750
upi	-3751
urm	-3752
usa	-3753
usb	-3754
usp	-3755
uvh	-3756
uzs	-3757
ves	-3758
vey	-3759
vgw	-3760
vpr	-3761
vrb	-3762
vss	-3763
xew	-3764
xfi	-3765
xgf	-3766
xhn	-3767
xmb	-3768
xou	-3769
xpa	-3770
xpi	-3771
xpx	-3772
xpy	-3773
xrj	-3774
xym	-3775
xze	-3776
▁381	-3777
▁382	-3778
▁411	-3779
▁448	-3780
▁467	-3781
▁478	-3782
▁482	-3783
▁508	-3784
▁549	-3785
▁557	-3786
▁564	-3787
▁569	-3788
▁619	-3789
+100?	-3790
+164?	-3791
+348?	-3792
+361?	-3793
+380?	-3794
+510?	-3795
+522?	-3796
+598?	-3797
+838?	-3798
+847?	-3799
+849?	-3800
+861?	-3801
+880?	-3802
▁1023	-3803
▁1078	-3804
▁1104	-3805
▁1108	-3806
▁1120	-3807
▁1153	-3808
▁1178	-3809
▁1224	-3810
▁1251	-3811
▁1255	-3812
cay	-3813
cee	-3814
cfy	-3815
cju	-3816
clh	-3817
coh	-3818
cpp	-3819
csr	-3820
cvo	-3821
cwm	-3822
cyw	-3823
dab	-3824
daf	-3825
dai	-3826
das	-3827
del	-3828
dey	-3829
dfa	-3830
dfb	-3831
dgp	-3832
dpt	-3833
dra	-3834
dsj	-3835
dvt	-3836
dwz	-3837
dze	-3838
dzi	-3839
fea	-3840
hap	-3841
hba	-3842
hbf	-3843
hee	-3844
hgd	-3845
hin	-3846
hip	-3847
hrp	-3848
hrw	-3849
hst	-3850
hwa	-3851
hwk	-3852
hyg	-3853
hys	-3854
hze	-3855
hzw	-3856
kgj	-3857
kjg	-3858
kjy	-3859
kon	-3860
kpm	-3861
krf	-3862
kri	-3863
krp	-3864
kwk	-3865
lej	-3866
lem	-3867
lfa	-3868
lfe	-3869
lfz	-3870
lgg	-3871
ljb	-3872
ljn	-3873
lmf	-3874
lmj	-3875
lms	-3876
lpa	-3877
lpw	-3878
lrf	-3879
lrr	-3880
lrw	-3881
lsb	-3882
lwr	-3883
lza	-3884
lzz	-3885
nao	-3886
nap	-3887
nbz	-3888
nei	-3889
nfs	-3890
ngh	-3891
nie	-3892
nim	-3893
njm	-3894
nmy	-3895
npb	-3896
nrb	-3897
nrt	-3898
nwn	-3899
nyw	-3900
oak	-3901
oby	-3902
ogi	-3903
ogu	-3904
oie	-3905
ore	-3906
ori	-3907
owo	-3908
ozb	-3909
qai	-3910
qbp	-3911
qea	-3912
qee	-3913
qia	-3914
qmm	-3915
qpa	-3916
qrf	-3917
qsi	-3918
qwi	-3919
qye	-3920
qzd	-3921
qzs	-3922
qzx	-3923
taw	-3924
tez	-3925
tfj	-3926
tga	-3927
tgw	-3928
tib	-3929
tie	-3930
tmr	-3931
tpa	-3932
tpg	-3933
try	-3934
tsb	-3935
tsm	-3936
twp	-3937
tww	-3938
tyb	-3939
tzj	-3940
uam	-3941
ubj	-3942
uet	-3943
uey	-3944
uix	-3945
uja	-3946
ujl	-3947
umg	-3948
upa	-3949
upy	-3950
urf	-3951
usm	-3952
uwa	-3953
uwe	-3954
uwp	-3955
uym	-3956
uze	-3957
vae	-3958
vaj	-3959
vba	-3960
vbm	-3961
vfx	-3962
vgz	-3963
vir	-3964
vjc	-3965
vpb	-3966
vrd	-3967
vwt	-3968
vzm	-3969
vzo	-3970
xbf	-3971
xbp	-3972
xef	-3973
xey	-3974
xjz	-3975
xpw	-3976
xpz	-3977
+19?	-3978
▁308	-3979
▁354	-3980
▁370	-3981
▁409	-3982
▁413	-3983
▁416	-3984
▁423	-3985
▁494	-3986
▁520	-3987
▁631	-3988
+114?	-3989
+183?	-3990
+307?	-3991
+324?	-3992
+329?	-3993
+341?	-3994
+378?	-3995
+506?	-3996
+511?	-3997
+555?	-3998
+562?	-3999
+573?	-4000
+575?	-4001
+803?	-4002
+806?	-4003
+830?	-4004
+862?	-4005
+889?	-4006
▁1076	-4007
▁1097	-4008
▁1100	-4009
▁1103	-4010
▁1113	-4011
▁1125	-4012
▁1126	-4013
▁1134	-4014
▁1136	-4015
▁1148	-4016
▁1171	-4017
▁1200	-4018
▁1217	-4019
▁1252	-4020
caf	-4021
cam	-4022
cfa	-4023
cff	-4024
cfg	-4025
cgr	-4026
ciu	-4027
cjj	-4028
clu	-4029
cmb	-4030
coc	-4031
cpi	-4032
cpr	-4033
cyz	-4034
dag	-4035
djn	-4036
djz	-4037
dmw	-4038
doh	-4039
dpi	-4040
dpp	-4041
dps	-4042
dpu	-4043
drb	-4044
drp	-4045
dsb	-4046
dvc	-4047
dzk	-4048
dzt	-4049
hab	-4050
hbg	-4051
hbj	-4052
hef	-4053
hei	-4054
hfx	-4055
hgr	-4056
hmm	-4057
hpr	-4058
hre	-4059
hwz	-4060
kbm	-4061
kfr	-4062
khn	-4063
klv	-4064
kpp	-4065
krh	-4066
krw	-4067
ksg	-4068
ksp	-4069
ksw	-4070
kzg	-4071
lfg	-4072
lgs	-4073
lji	-4074
ljt	-4075
ljy	-4076
lrs	-4077
lso	-4078
lwx	-4079
lwy	-4080
lys	-4081
lyz	-4082
nbf	-4083
nbg	-4084
new	-4085
nfa	-4086
nfe	-4087
ngf	-4088
nit	-4089
njy	-4090
npr	-4091
nst	-4092
nww	-4093
nyp	-4094
nyz	-4095
obi	-4096
oee	-4097
ofe	-4098
ofg	-4099
ofr	-4100
ogb	-4101
ogg	-4102
oig	-4103
opa	-4104
ops	-4105
oss	-4106
owa	-4107
owj	-4108
oya	-4109
oyl	-4110
ozs	-4111
qal	-4112
qbb	-4113
qgi	-4114
qgl	-4115
qjs	-4116
qmf	-4117
qpi	-4118
qqq	-4119
qsa	-4120
qtn	-4121
qze	-4122
qzh	-4123
tap	-4124
tbr	-4125
tgj	-4126
tgs	-4127
tmm	-4128
tps	-4129
tpv	-4130
twr	-4131
tyi	-4132
tzs	-4133
uaa	-4134
uaf	-4135
uar	-4136
uhh	-4137
uje	-4138
upg	-4139
urr	-4140
usg	-4141
uto	-4142
uyi	-4143
uzd	-4144
vao	-4145
vep	-4146
vez	-4147
vje	-4148
vjy	-4149
vrn	-4150
vsg	-4151
vsw	-4152
vwj	-4153
vwz	-4154
vzd	-4155
vzh	-4156
vzz	-4157
xaa	-4158
xck	-4159
xfj	-4160
xjk	-4161
xmc	-4162
xmp	-4163
xsm	-4164
xwr	-4165
xws	-4166
xyb	-4167
▁241	-4168
▁266	-4169
▁282	-4170
▁288	-4171
▁320	-4172
▁340	-4173
▁343	-4174
▁359	-4175
▁375	-4176
▁376	-4177
▁378	-4178
▁399	-4179
▁417	-4180
▁424	-4181
▁459	-4182
▁460	-4183
▁518	-4184
▁541	-4185
▁599	-4186
+141?	-4187
+144?	-4188
+167?	-4189
+189?	-4190
+314?	-4191
+571?	-4192
▁1032	-4193
▁1058	-4194
▁1093	-4195
▁1095	-4196
▁1105	-4197
▁1118	-4198
▁1123	-4199
▁1128	-4200
▁1164	-4201
▁1168	-4202
▁1173	-4203
▁1218	-4204
▁1233	-4205
▁1242	-4206
▁1254	-4207
▁1265	-4208
▁1293	-4209
▁1295	-4210
▁1334	-4211
bzj	-4212
caa	-4213
cea	-4214
cem	-4215
cfe	-4216
cgf	-4217
cgo	-4218
cgy	-4219
cma	-4220
cmk	-4221
cnt	-4222
cpe	-4223
crz	-4224
cvu	-4225
czh	-4226
dbb	-4227
dbs	-4228
den	-4229
dgi	-4230
dgy	-4231
dho	-4232
dii	-4233
djp	-4234
dme	-4235
dmj	-4236
dmz	-4237
dpj	-4238
drl	-4239
drz	-4240
dsc	-4241
dvn	-4242
hal	-4243
hfj	-4244
hfp	-4245
hgy	-4246
hmj	-4247
hmy	-4248
hpz	-4249
hrg	-4250
hss	-4251
hwg	-4252
hza	-4253
iir	-4254
kbf	-4255
kbl	-4256
kbo	-4257
kee	-4258
kep	-4259
kfj	-4260
kgw	-4261
kgz	-4262
kms	-4263
krb	-4264
ksy	-4265
kyg	-4266
lai	-4267
lbf	-4268
lfn	-4269
lgb	-4270
lme	-4271
lmw	-4272
lpv	-4273
lri	-4274
lsk	-4275
lsy	-4276
lzo	-4277
nae	-4278
nfv	-4279
ngw	-4280
nja	-4281
njr	-4282
nmi	-4283
nmv	-4284
npe	-4285
nsa	-4286
nsr	-4287
nws	-4288
nwt	-4289
nyk	-4290
nzf	-4291
oay	-4292
obm	-4293
oic	-4294
oif	-4295
oil	-4296
ojj	-4297
ojz	-4298
omj	-4299
oru	-4300
oyg	-4301
ozo	-4302
qar	-4303
qba	-4304
qep	-4305
qlx	-4306
qpc	-4307
qpg	-4308
qph	-4309
qps	-4310
qzt	-4311
sei	-4312
tbj	-4313
tis	-4314
tpr	-4315
tpz	-4316
tsa	-4317
tsw	-4318
tyz	-4319
uah	-4320
uao	-4321
ueg	-4322
uep	-4323
ufs	-4324
uft	-4325
ugi	-4326
ugt	-4327
uif	-4328
ujp	-4329
ulv	-4330
umf	-4331
upw	-4332
uye	-4333
uys	-4334
uzp	-4335
vas	-4336
vbf	-4337
vbw	-4338
vfm	-4339
vil	-4340
vmb	-4341
vsn	-4342
vsp	-4343
vwm	-4344
vyh	-4345
vyl	-4346
vzb	-4347
xao	-4348
xbb	-4349
xej	-4350
xem	-4351
xfs	-4352
xgu	-4353
xiu	-4354
xjw	-4355
xmn	-4356
xmz	-4357
xon	-4358
xvk	-4359
xwl	-4360
xwt	-4361
xyw	-4362
xzi	-4363
xzq	-4364
+15?	-4365
▁196	-4366
▁239	-4367
▁292	-4368
▁351	-4369
▁364	-4370
▁397	-4371
▁412	-4372
▁426	-4373
▁447	-4374
▁464	-4375
▁479	-4376
▁480	-4377
▁481	-4378
▁491	-4379
▁522	-4380
▁559	-4381
▁563	-4382
+159?	-4383
+193?	-4384
+373?	-4385
+526?	-4386
+591?	-4387
+801?	-4388
+842?	-4389
+893?	-4390
+898?	-4391
▁1000	-4392
▁1071	-4393
▁1114	-4394
▁1131	-4395
▁1166	-4396
▁1170	-4397
▁1172	-4398
▁1185	-4399
▁1230	-4400
▁1237	-4401
▁1353	-4402
+8?	-4403
cao	-4404
cbb	-4405
cet	-4406
cez	-4407
cgj	-4408
cgk	-4409
chn	-4410
cjq	-4411
cmf	-4412
cml	-4413
cmr	-4414
cpb	-4415
csa	-4416
csk	-4417
cvn	-4418
cwh	-4419
cwy	-4420
cyb	-4421
czr	-4422
czw	-4423
deg	-4424
dgr	-4425
djk	-4426
dmb	-4427
dpe	-4428
dpy	-4429
drf	-4430
dsg	-4431
dww	-4432
dyn	-4433
dyz	-4434
dzx	-4435
haa	-4436
hai	-4437
han	-4438
hbm	-4439
hbs	-4440
heb	-4441
hfb	-4442
hgi	-4443
hgo	-4444
hgt	-4445
hig	-4446
hjd	-4447
hjl	-4448
hrm	-4449
hrr	-4450
hsa	-4451
hsr	-4452
hsy	-4453
hwj	-4454
hwm	-4455
hyb	-4456
kbg	-4457
kbn	-4458
kbp	-4459
ker	-4460
kez	-4461
kgg	-4462
kis	-4463
kix	-4464
kmi	-4465
knd	-4466
knh	-4467
kpz	-4468
krj	-4469
kth	-4470
kvk	-4471
kyr	-4472
kze	-4473
lbw	-4474
lee	-4475
les	-4476
let	-4477
lfh	-4478
lfl	-4479
lje	-4480
ljf	-4481
ljj	-4482
ljo	-4483
ljw	-4484
lmr	-4485
lpu	-4486
lre	-4487
lwv	-4488
lzm	-4489
nbr	-4490
nbt	-4491
nea	-4492
nef	-4493
nej	-4494
ngj	-4495
nia	-4496
nib	-4497
njt	-4498
npi	-4499
nso	-4500
nsy	-4501
nya	-4502
nzr	-4503
oab	-4504
oav	-4505
oei	-4506
oim	-4507
ojw	-4508
omc	-4509
orh	-4510
osg	-4511
osv	-4512
owz	-4513
oyb	-4514
ozg	-4515
qag	-4516
qdu	-4517
qew	-4518
qfw	-4519
qgx	-4520
qhq	-4521
qht	-4522
qiy	-4523
qjb	-4524
qje	-4525
qjn	-4526
qlo	-4527
qmb	-4528
qov	-4529
qss	-4530
qtd	-4531
qwm	-4532
qyi	-4533
tes	-4534
tge	-4535
tia	-4536
tjm	-4537
tmc	-4538
tmw	-4539
trb	-4540
trj	-4541
tss	-4542
twb	-4543
twm	-4544
tws	-4545
tyk	-4546
tze	-4547
tzg	-4548
ubm	-4549
ubv	-4550
ubw	-4551
ued	-4552
ufg	-4553
uge	-4554
ugp	-4555
ujf	-4556
ulk	-4557
ump	-4558
utu	-4559
uwm	-4560
uzy	-4561
vaq	-4562
vaz	-4563
vbb	-4564
vef	-4565
vei	-4566
vfw	-4567
vmj	-4568
vrf	-4569
vrl	-4570
vrs	-4571
vsr	-4572
vsy	-4573
vys	-4574
vyv	-4575
xay	-4576
xaz	-4577
xbq	-4578
xgn	-4579
xir	-4580
xjg	-4581
xjm	-4582
xjs	-4583
xma	-4584
xml	-4585
xps	-4586
xvc	-4587
xvv	-4588
xwg	-4589
xye	-4590
xzo	-4591
+51?	-4592
▁324	-4593
▁325	-4594
▁334	-4595
▁336	-4596
▁373	-4597
▁387	-4598
▁392	-4599
▁425	-4600
▁432	-4601
▁450	-4602
▁488	-4603
▁493	-4604
▁497	-4605
▁519	-4606
▁661	-4607
▁749	-4608
+133?	-4609
+388?	-4610
+393?	-4611
+578?	-4612
+581?	-4613
▁1159	-4614
▁1179	-4615
▁1192	-4616
▁1199	-4617
▁1201	-4618
▁1232	-4619
▁1261	-4620
▁1263	-4621
▁1314	-4622
▁1350	-4623
cag	-4624
can	-4625
ceg	-4626
cei	-4627
cfb	-4628
cir	-4629
ciz	-4630
cjc	-4631
cjr	-4632
cmm	-4633
cmt	-4634
cnn	-4635
csy	-4636
ctt	-4637
cwe	-4638
cyi	-4639
cyq	-4640
dam	-4641
dao	-4642
dem	-4643
dfd	-4644
dms	-4645
dnc	-4646
dok	-4647
dsf	-4648
dvd	-4649
dyd	-4650
dyv	-4651
dzb	-4652
ham	-4653
hao	-4654
hfh	-4655
hga	-4656
hgh	-4657
hir	-4658
hjz	-4659
hyr	-4660
hyu	-4661
hzs	-4662
kam	-4663
kay	-4664
kby	-4665
ket	-4666
kfg	-4667
kfn	-4668
kiu	-4669
kjr	-4670
kmp	-4671
kpt	-4672
kpw	-4673
kpy	-4674
kwv	-4675
lfv	-4676
lgr	-4677
lic	-4678
lij	-4679
ljp	-4680
lsi	-4681
lsm	-4682
lwj	-4683
lws	-4684
lww	-4685
lyg	-4686
nav	-4687
nfp	-4688
nge	-4689
nif	-4690
nis	-4691
niy	-4692
nmg	-4693
nmm	-4694
nrg	-4695
nrl	-4696
nrm	-4697
nrz	-4698
nsh	-4699
nzi	-4700
ofw	-4701
ogp	-4702
ogs	-4703
omi	-4704
ope	-4705
opr	-4706
osf	-4707
osy	-4708
oyt	-4709
oyz	-4710
oza	-4711
ozj	-4712
psi	-4713
qbc	-4714
qbu	-4715
qei	-4716
qes	-4717
qfb	-4718
qft	-4719
qgz	-4720
qip	-4721
qja	-4722
qjz	-4723
qod	-4724
qpj	-4725
qsb	-4726
qsd	-4727
qsv	-4728
qwb	-4729
qzr	-4730
tax	-4731
tbs	-4732
tea	-4733
tef	-4734
teh	-4735
tfy	-4736
tpj	-4737
tpp	-4738
trr	-4739
uas	-4740
ueb	-4741
uef	-4742
ufc	-4743
ugh	-4744
ujt	-4745
uln	-4746
uma	-4747
umz	-4748
uoh	-4749
uol	-4750
uov	-4751
urj	-4752
urw	-4753
uvt	-4754
uwg	-4755
uwj	-4756
uwn	-4757
uwx	-4758
uyg	-4759
uyr	-4760
uyz	-4761
van	-4762
vbi	-4763
vbp	-4764
vby	-4765
veg	-4766
vex	-4767
viy	-4768
vjz	-4769
vpe	-4770
vpo	-4771
vpv	-4772
vrm	-4773
vrw	-4774
vye	-4775
vzl	-4776
xae	-4777
xag	-4778
xat	-4779
xbw	-4780
xdk	-4781
xft	-4782
xiw	-4783
xjf	-4784
xlx	-4785
xmg	-4786
xmw	-4787
xmy	-4788
xnq	-4789
xpk	-4790
xra	-4791
xtf	-4792
xwj	-4793
+18?	-4794
+39?	-4795
▁212	-4796
▁237	-4797
▁240	-4798
▁281	-4799
▁311	-4800
▁317	-4801
▁321	-4802
▁335	-4803
▁361	-4804
▁363	-4805
▁366	-4806
▁401	-4807
▁407	-4808
▁420	-4809
▁438	-4810
▁461	-4811
▁485	-4812
▁486	-4813
▁487	-4814
▁527	-4815
▁718	-4816
+161?	-4817
+178?	-4818
+195?	-4819
+339?	-4820
+561?	-4821
+593?	-4822
+816?	-4823
+867?	-4824
+874?	-4825
▁1035	-4826
▁1073	-4827
▁1088	-4828
▁1091	-4829
▁1098	-4830
▁1117	-4831
▁1144	-4832
▁1151	-4833
▁1163	-4834
▁1195	-4835
▁1202	-4836
▁1231	-4837
▁1250	-4838
▁1319	-4839
▁1339	-4840
▁1376	-4841
cae	-4842
caj	-4843
cap	-4844
cbf	-4845
cek	-4846
cex	-4847
cgw	-4848
civ	-4849
cjw	-4850
clq	-4851
crn	-4852
crw	-4853
csl	-4854
cwk	-4855
daj	-4856
dfh	-4857
dfz	-4858
dhk	-4859
dmi	-4860
dpb	-4861
dpl	-4862
drg	-4863
dri	-4864
dsa	-4865
dsr	-4866
dsw	-4867
dsx	-4868
dyp	-4869
dza	-4870
dzp	-4871
hej	-4872
hfn	-4873
hfr	-4874
hnn	-4875
hpl	-4876
hro	-4877
hsh	-4878
hsi	-4879
hyh	-4880
hyv	-4881
hyy	-4882
hzr	-4883
kan	-4884
kea	-4885
kft	-4886
kfx	-4887
kgs	-4888
kiy	-4889
kjp	-4890
kll	-4891
kmb	-4892
kme	-4893
kmw	-4894
kpv	-4895
krg	-4896
krr	-4897
ksq	-4898
kwc	-4899
kya	-4900
kyc	-4901
kyp	-4902
kzt	-4903
laz	-4904
lbl	-4905
lbp	-4906
lpn	-4907
lrq	-4908
lsv	-4909
lwp	-4910
lyk	-4911
lzp	-4912
lzy	-4913
nfb	-4914
nfj	-4915
nfk	-4916
nir	-4917
njg	-4918
nmc	-4919
nrx	-4920
nsg	-4921
nsj	-4922
nye	-4923
nyj	-4924
oag	-4925
obc	-4926
obe	-4927
obg	-4928
obt	-4929
ofa	-4930
ofv	-4931
ofz	-4932
oin	-4933
omg	-4934
omy	-4935
owl	-4936
oys	-4937
pre	-4938
qbe	-4939
qbg	-4940
qcc	-4941
qen	-4942
qff	-4943
qgr	-4944
qgs	-4945
qjf	-4946
qjo	-4947
qmi	-4948
qmy	-4949
qol	-4950
qon	-4951
qvc	-4952
teg	-4953
tjb	-4954
tje	-4955
tjo	-4956
tjp	-4957
tjt	-4958
tmz	-4959
tsc	-4960
twy	-4961
tzp	-4962
uaj	-4963
uau	-4964
ubc	-4965
uei	-4966
ufy	-4967
ugu	-4968
uis	-4969
ujc	-4970
ujg	-4971
umi	-4972
umy	-4973
uno	-4974
upv	-4975
urp	-4976
uww	-4977
uzf	-4978
uzo	-4979
uzq	-4980
vau	-4981
vbu	-4982
vfe	-4983
vfi	-4984
vfr	-4985
vgc	-4986
vmk	-4987
vpn	-4988
vsh	-4989
vyk	-4990
vyr	-4991
xam	-4992
xbl	-4993
xby	-4994
xcq	-4995
xek	-4996
xiv	-4997
xiy	-4998
xja	-4999
xpf	-5000
xrn	-5001
xrr	-5002
xrz	-5003
xtm	-5004
xtw	-5005
xvn	-5006
xwo	-5007
xyf	-5008
xyg	-5009
xyu	-5010
xzk	-5011
xzu	-5012
xzw	-5013
▁213	-5014
▁227	-5015
▁269	-5016
▁347	-5017
▁379	-5018
▁398	-5019
▁457	-5020
▁575	-5021
▁mpm	-5022
+337?	-5023
+513?	-5024
+841?	-5025
▁1012	-5026
▁1070	-5027
▁1092	-5028
▁1138	-5029
▁1206	-5030
▁1221	-5031
▁1248	-5032
▁1266	-5033
▁1268	-5034
▁1269	-5035
▁1287	-5036
▁1294	-5037
▁1296	-5038
▁1344	-5039
▁1364	-5040
ceo	-5041
cfm	-5042
cig	-5043
cij	-5044
ciy	-5045
cjf	-5046
cjo	-5047
cku	-5048
cmd	-5049
cmv	-5050
coq	-5051
cro	-5052
csf	-5053
csv	-5054
cwp	-5055
cwv	-5056
cyf	-5057
cyn	-5058
cyr	-5059
czp	-5060
def	-5061
dew	-5062
dge	-5063
dgk	-5064
dgs	-5065
dim	-5066
dio	-5067
dix	-5068
djg	-5069
dlk	-5070
dml	-5071
dpo	-5072
dpw	-5073
drj	-5074
dry	-5075
dsl	-5076
dvo	-5077
dzl	-5078
dzr	-5079
dzw	-5080
gyz	-5081
hbp	-5082
hew	-5083
hez	-5084
hff	-5085
hif	-5086
hio	-5087
hjg	-5088
hjs	-5089
hjy	-5090
hmu	-5091
hph	-5092
hsj	-5093
hsp	-5094
hwf	-5095
hym	-5096
hzd	-5097
kfh	-5098
kgo	-5099
kgx	-5100
kho	-5101
klo	-5102
kmq	-5103
knu	-5104
koq	-5105
kox	-5106
kpi	-5107
krc	-5108
ksc	-5109
ktc	-5110
kwh	-5111
kwz	-5112
kzc	-5113
kzd	-5114
kzf	-5115
kzz	-5116
lba	-5117
lbe	-5118
leh	-5119
lel	-5120
lfx	-5121
lgo	-5122
lim	-5123
lpg	-5124
lpl	-5125
lrp	-5126
lsa	-5127
lwf	-5128
lyy	-5129
lzk	-5130
lzq	-5131
nah	-5132
nai	-5133
naw	-5134
nba	-5135
nbh	-5136
nft	-5137
njf	-5138
nmb	-5139
nmr	-5140
npg	-5141
nrw	-5142
nvl	-5143
nyo	-5144
nze	-5145
nzs	-5146
oaq	-5147
obu	-5148
obv	-5149
obw	-5150
oep	-5151
ofy	-5152
ogn	-5153
oij	-5154
ojq	-5155
onc	-5156
opv	-5157
orj	-5158
pjj	-5159
qas	-5160
qbt	-5161
qel	-5162
qem	-5163
qgp	-5164
qgq	-5165
qgt	-5166
qhv	-5167
qkq	-5168
qma	-5169
qms	-5170
qrb	-5171
qrc	-5172
qri	-5173
qsp	-5174
qsy	-5175
qwe	-5176
qwj	-5177
qwq	-5178
qyk	-5179
qyl	-5180
qzm	-5181
taj	-5182
tew	-5183
tfb	-5184
tih	-5185
tiv	-5186
tpb	-5187
tri	-5188
trp	-5189
typ	-5190
tzi	-5191
ubg	-5192
ubn	-5193
uee	-5194
ufd	-5195
ufv	-5196
ugk	-5197
ugl	-5198
uhq	-5199
ukc	-5200
ulc	-5201
umq	-5202
upk	-5203
ura	-5204
uuk	-5205
uwq	-5206
uwy	-5207
uzt	-5208
vaa	-5209
vap	-5210
vbv	-5211
vea	-5212
via	-5213
vic	-5214
vig	-5215
vis	-5216
vjb	-5217
vmh	-5218
vmo	-5219
vpy	-5220
vrz	-5221
vsi	-5222
vwh	-5223
vwu	-5224
vyd	-5225
vzg	-5226
xeg	-5227
xep	-5228
xfb	-5229
xfm	-5230
xgb	-5231
xgg	-5232
xgk	-5233
xib	-5234
xil	-5235
xjn	-5236
xju	-5237
xku	-5238
xmf	-5239
xmh	-5240
xpl	-5241
xpr	-5242
xsd	-5243
xsj	-5244
xsz	-5245
xtq	-5246
xuc	-5247
xwy	-5248
xyx	-5249
xzb	-5250
xzx	-5251
▁243	-5252
▁247	-5253
▁261	-5254
▁264	-5255
▁315	-5256
▁322	-5257
▁345	-5258
▁349	-5259
▁372	-5260
▁396	-5261
▁427	-5262
▁429	-5263
▁535	-5264
▁543	-5265
+116?	-5266
+172?	-5267
+181?	-5268
+392?	-5269
+548?	-5270
+829?	-5271
▁1077	-5272
▁1139	-5273
▁1146	-5274
▁1152	-5275
▁1174	-5276
▁1209	-5277
▁1249	-5278
▁1270	-5279
▁1283	-5280
bre	-5281
cfr	-5282
chd	-5283
chl	-5284
cie	-5285
cio	-5286
cjd	-5287
cjn	-5288
clk	-5289
cms	-5290
cmu	-5291
cnq	-5292
crl	-5293
crp	-5294
cru	-5295
cvc	-5296
cvk	-5297
cyu	-5298
czf	-5299
dau	-5300
dbc	-5301
dbd	-5302
dbn	-5303
des	-5304
dfw	-5305
dgf	-5306
dgg	-5307
dgl	-5308
dgm	-5309
dgn	-5310
dhl	-5311
dmd	-5312
dmy	-5313
dnl	-5314
dpn	-5315
drs	-5316
dru	-5317
dwf	-5318
dwt	-5319
dyo	-5320
dzf	-5321
dzg	-5322
fai	-5323
had	-5324
haw	-5325
hbb	-5326
hev	-5327
hey	-5328
hgm	-5329
hij	-5330
hit	-5331
hix	-5332
hjb	-5333
hkc	-5334
hpj	-5335
hpy	-5336
hsg	-5337
hwi	-5338
hyw	-5339
hyx	-5340
hzu	-5341
kab	-5342
kbq	-5343
kes	-5344
kfo	-5345
kfp	-5346
kfs	-5347
kgb	-5348
kgf	-5349
khq	-5350
kiv	-5351
kjv	-5352
kol	-5353
kot	-5354
kpj	-5355
ksz	-5356
kwr	-5357
kwy	-5358
kyl	-5359
kzb	-5360
lag	-5361
lap	-5362
lbg	-5363
lbt	-5364
leo	-5365
lep	-5366
lft	-5367
lgd	-5368
lib	-5369
ljz	-5370
lmm	-5371
lmv	-5372
lph	-5373
lrt	-5374
lsf	-5375
lwh	-5376
lyc	-5377
lyu	-5378
lzv	-5379
nac	-5380
naz	-5381
nbd	-5382
nbk	-5383
nbo	-5384
net	-5385
ney	-5386
nfy	-5387
ngb	-5388
ngq	-5389
njp	-5390
npj	-5391
npw	-5392
nrf	-5393
nsw	-5394
nwi	-5395
nyc	-5396
oaz	-5397
obk	-5398
obp	-5399
oea	-5400
oek	-5401
oeq	-5402
oeu	-5403
ofs	-5404
oga	-5405
ogz	-5406
ojg	-5407
omb	-5408
opm	-5409
ory	-5410
ows	-5411
qah	-5412
qaj	-5413
qbl	-5414
qed	-5415
qgf	-5416
qgg	-5417
qgw	-5418
qiq	-5419
qit	-5420
qjl	-5421
qju	-5422
qnc	-5423
qoo	-5424
qrm	-5425
qvo	-5426
qwk	-5427
qwp	-5428
qya	-5429
qyr	-5430
qzn	-5431
qzz	-5432
seg	-5433
sek	-5434
tab	-5435
tbt	-5436
tbw	-5437
teb	-5438
teo	-5439
tfp	-5440
tgv	-5441
tiz	-5442
tpt	-5443
tpw	-5444
tpy	-5445
trg	-5446
tro	-5447
twn	-5448
tym	-5449
uaz	-5450
ubd	-5451
ube	-5452
uem	-5453
ufw	-5454
uga	-5455
ugj	-5456
ugs	-5457
ugy	-5458
uiq	-5459
ujb	-5460
uji	-5461
ujn	-5462
umw	-5463
upo	-5464
uvc	-5465
uvv	-5466
uws	-5467
uwv	-5468
veu	-5469
vfv	-5470
vgh	-5471
vjj	-5472
vmd	-5473
vpj	-5474
vso	-5475
vwe	-5476
vws	-5477
vyg	-5478
vyx	-5479
vzy	-5480
war	-5481
xac	-5482
xap	-5483
xbz	-5484
xei	-5485
xfk	-5486
xht	-5487
xjv	-5488
xkc	-5489
xlc	-5490
xnn	-5491
xoh	-5492
xpv	-5493
xrs	-5494
xsn	-5495
xwm	-5496
xwp	-5497
xwv	-5498
xyn	-5499
xyv	-5500
xzr	-5501
+83?	-5502
▁216	-5503
▁260	-5504
▁273	-5505
▁280	-5506
▁289	-5507
▁304	-5508
▁326	-5509
▁331	-5510
▁342	-5511
▁353	-5512
▁400	-5513
▁441	-5514
▁449	-5515
▁476	-5516
▁505	-5517
▁kbm	-5518
+110?	-5519
+323?	-5520
+391?	-5521
+821?	-5522
+864?	-5523
+876?	-5524
▁1086	-5525
▁1115	-5526
▁1188	-5527
▁1198	-5528
▁1203	-5529
▁1219	-5530
▁1223	-5531
▁1236	-5532
▁1274	-5533
▁1288	-5534
▁1355	-5535
bsi	-5536
cau	-5537
cbj	-5538
cbk	-5539
cgh	-5540
cgi	-5541
chh	-5542
cid	-5543
cin	-5544
ckx	-5545
cnh	-5546
cpt	-5547
cpy	-5548
csd	-5549
csn	-5550
ctv	-5551
cwg	-5552
cye	-5553
cyj	-5554
czg	-5555
czu	-5556
czy	-5557
dad	-5558
daq	-5559
dav	-5560
dbg	-5561
dff	-5562
dfv	-5563
djm	-5564
djq	-5565
dlo	-5566
dnd	-5567
dpm	-5568
dwc	-5569
dyc	-5570
dyh	-5571
dyj	-5572
dyy	-5573
dzn	-5574
dzo	-5575
fjr	-5576
frm	-5577
hau	-5578
haz	-5579
hbe	-5580
hen	-5581
hgg	-5582
hia	-5583
hid	-5584
hpg	-5585
hri	-5586
hsd	-5587
hyf	-5588
hyt	-5589
kap	-5590
keg	-5591
keh	-5592
kek	-5593
kfl	-5594
kgl	-5595
kgp	-5596
khd	-5597
kjw	-5598
kno	-5599
koh	-5600
kph	-5601
kru	-5602
ksn	-5603
kyy	-5604
kzo	-5605
lac	-5606
lad	-5607
lbk	-5608
lbo	-5609
lfj	-5610
lih	-5611
ljr	-5612
ljs	-5613
lmo	-5614
lmy	-5615
lpy	-5616
lsj	-5617
lwt	-5618
lyj	-5619
nag	-5620
nbn	-5621
nbw	-5622
nby	-5623
ned	-5624
nek	-5625
nes	-5626
nev	-5627
nfm	-5628
ngr	-5629
njb	-5630
njd	-5631
nji	-5632
njo	-5633
nmo	-5634
npy	-5635
nrh	-5636
nsk	-5637
nwk	-5638
nyd	-5639
nyf	-5640
oam	-5641
obs	-5642
ojh	-5643
orb	-5644
org	-5645
osc	-5646
osn	-5647
owy	-5648
oye	-5649
oyn	-5650
oyu	-5651
ozy	-5652
paz	-5653
qaa	-5654
qat	-5655
qau	-5656
qax	-5657
qcx	-5658
qdd	-5659
qfq	-5660
qfs	-5661
qhu	-5662
qig	-5663
qih	-5664
qim	-5665
qjc	-5666
qlt	-5667
qmp	-5668
qmv	-5669
qpm	-5670
qru	-5671
qso	-5672
qtx	-5673
qux	-5674
qvt	-5675
qwd	-5676
qyj	-5677
qzf	-5678
sea	-5679
sel	-5680
seo	-5681
tak	-5682
tar	-5683
tay	-5684
tff	-5685
tgd	-5686
tgk	-5687
tgn	-5688
tiw	-5689
tjg	-5690
tmb	-5691
trf	-5692
trs	-5693
tya	-5694
tzd	-5695
tzk	-5696
tzl	-5697
uax	-5698
udx	-5699
ufk	-5700
uig	-5701
ujm	-5702
ujr	-5703
ulh	-5704
ull	-5705
umm	-5706
upm	-5707
upx	-5708
urg	-5709
usf	-5710
usv	-5711
uuq	-5712
uvl	-5713
uyl	-5714
uzv	-5715
vbh	-5716
vbq	-5717
veh	-5718
vew	-5719
vgb	-5720
vgj	-5721
vjq	-5722
vjv	-5723
vmg	-5724
vmy	-5725
vpp	-5726
vsj	-5727
vsk	-5728
vst	-5729
vwi	-5730
vwk	-5731
vwp	-5732
vwq	-5733
vyt	-5734
xai	-5735
xaw	-5736
xbu	-5737
xbv	-5738
xcx	-5739
xet	-5740
xkk	-5741
xmr	-5742
xnl	-5743
xno	-5744
xpq	-5745
xti	-5746
xtn	-5747
xtt	-5748
xvd	-5749
xvt	-5750
xwb	-5751
xwi	-5752
xyz	-5753
▁217	-5754
▁229	-5755
▁255	-5756
▁267	-5757
▁284	-5758
▁294	-5759
▁313	-5760
▁323	-5761
▁327	-5762
▁368	-5763
▁404	-5764
▁408	-5765
▁434	-5766
▁436	-5767
+102?	-5768
▁1043	-5769
▁1194	-5770
▁1205	-5771
▁1243	-5772
▁1253	-5773
▁1256	-5774
▁1272	-5775
▁1276	-5776
▁1306	-5777
▁1380	-5778
▁1403	-5779
bja	-5780
cbn	-5781
cbt	-5782
cbu	-5783
cep	-5784
cew	-5785
cey	-5786
cfc	-5787
cim	-5788
cip	-5789
cmy	-5790
cmz	-5791
cnk	-5792
cpf	-5793
cph	-5794
cpq	-5795
crh	-5796
crm	-5797
crs	-5798
crv	-5799
css	-5800
cwt	-5801
cza	-5802
daa	-5803
dap	-5804
dbf	-5805
deh	-5806
dep	-5807
det	-5808
dfo	-5809
dgv	-5810
dhh	-5811
dhn	-5812
dht	-5813
djy	-5814
doq	-5815
dpf	-5816
dpv	-5817
drc	-5818
dtt	-5819
dws	-5820
dzv	-5821
fef	-5822
gfx	-5823
gmm	-5824
gyy	-5825
hae	-5826
hfg	-5827
hfw	-5828
hgn	-5829
hib	-5830
hiy	-5831
hja	-5832
hjw	-5833
hmo	-5834
hoc	-5835
hpb	-5836
hrx	-5837
htk	-5838
hwc	-5839
hwn	-5840
hwp	-5841
hwu	-5842
hwv	-5843
hww	-5844
hyi	-5845
hyk	-5846
hyz	-5847
hzf	-5848
kar	-5849
kbb	-5850
ked	-5851
kfc	-5852
kfe	-5853
kfz	-5854
kgr	-5855
kgv	-5856
khx	-5857
kim	-5858
kjb	-5859
kmk	-5860
kou	-5861
ksf	-5862
kso	-5863
ksv	-5864
ktd	-5865
kys	-5866
kzj	-5867
lam	-5868
lar	-5869
lbd	-5870
lbn	-5871
lif	-5872
lil	-5873
ljc	-5874
ljv	-5875
lps	-5876
lrm	-5877
lsn	-5878
lyq	-5879
lzr	-5880
nan	-5881
nbj	-5882
neg	-5883
nen	-5884
nfd	-5885
nga	-5886
ngg	-5887
nmh	-5888
npk	-5889
npv	-5890
nrk	-5891
nrv	-5892
nwo	-5893
nzj	-5894
nzy	-5895
obq	-5896
oeb	-5897
oen	-5898
oes	-5899
oex	-5900
ofn	-5901
ogf	-5902
oix	-5903
oja	-5904
ojl	-5905
orq	-5906
osm	-5907
owg	-5908
oyf	-5909
psb	-5910
psp	-5911
pzi	-5912
qbd	-5913
qbf	-5914
qbx	-5915
qdc	-5916
qeq	-5917
qfr	-5918
qfu	-5919
qfz	-5920
qgb	-5921
qgu	-5922
qgv	-5923
qjd	-5924
qmn	-5925
qnt	-5926
qoh	-5927
qpl	-5928
qpv	-5929
qst	-5930
qvd	-5931
qyf	-5932
qyq	-5933
qyx	-5934
seh	-5935
sen	-5936
set	-5937
tfa	-5938
tfn	-5939
tfq	-5940
tfs	-5941
tgc	-5942
tgg	-5943
tjf	-5944
tjs	-5945
tme	-5946
tmg	-5947
trz	-5948
tsf	-5949
tsi	-5950
tsp	-5951
twi	-5952
tyg	-5953
tzt	-5954
tzx	-5955
uat	-5956
ubl	-5957
uer	-5958
ugg	-5959
uiw	-5960
umu	-5961
unn	-5962
upd	-5963
urb	-5964
urc	-5965
urn	-5966
uro	-5967
usk	-5968
usr	-5969
ust	-5970
utl	-5971
uuc	-5972
uuu	-5973
uvx	-5974
uwc	-5975
uyn	-5976
uyp	-5977
uyq	-5978
uyt	-5979
uza	-5980
uzc	-5981
uzl	-5982
vad	-5983
vbd	-5984
vfb	-5985
vgf	-5986
vgl	-5987
vgo	-5988
vix	-5989
vjx	-5990
vno	-5991
vsb	-5992
vwr	-5993
vzk	-5994
xab	-5995
xaj	-5996
xal	-5997
xbc	-5998
xdd	-5999
xfg	-6000
xhu	-6001
xjx	-6002
xoc	-6003
xoo	-6004
xpm	-6005
xro	-6006
xrt	-6007
xtb	-6008
xvl	-6009
xyc	-6010
xyl	-6011
xyr	-6012
xyt	-6013
xzd	-6014
+55?	-6015
▁198	-6016
▁262	-6017
▁300	-6018
▁350	-6019
▁458	-6020
+582?	-6021
▁1005	-6022
▁1046	-6023
▁1116	-6024
▁1182	-6025
▁1187	-6026
▁1216	-6027
▁1220	-6028
▁1227	-6029
▁1262	-6030
▁1277	-6031
▁1324	-6032
▁1343	-6033
▁1392	-6034
▁1410	-6035
ber	-6036
cah	-6037
cav	-6038
cbm	-6039
ceb	-6040
cfl	-6041
cfu	-6042
cfw	-6043
cgu	-6044
chq	-6045
chu	-6046
cil	-6047
cjk	-6048
cjl	-6049
cov	-6050
cpd	-6051
cps	-6052
crf	-6053
crj	-6054
cth	-6055
cvl	-6056
cwz	-6057
cyh	-6058
cyo	-6059
cyx	-6060
czo	-6061
czt	-6062
dac	-6063
dal	-6064
dby	-6065
ddu	-6066
deo	-6067
dgd	-6068
dgq	-6069
dgw	-6070
din	-6071
djc	-6072
djt	-6073
dmh	-6074
dmp	-6075
doc	-6076
dpa	-6077
dpd	-6078
dsi	-6079
dsq	-6080
dtv	-6081
dwn	-6082
dwq	-6083
dyl	-6084
dzh	-6085
fae	-6086
gzt	-6087
hax	-6088
hdu	-6089
hgl	-6090
hik	-6091
hiw	-6092
hmq	-6093
hmz	-6094
hpp	-6095
hrd	-6096
hrt	-6097
hzb	-6098
hzn	-6099
kag	-6100
khk	-6101
kik	-6102
kir	-6103
kjx	-6104
kjz	-6105
klh	-6106
kmo	-6107
knt	-6108
kpb	-6109
kvh	-6110
kwd	-6111
kwm	-6112
kyv	-6113
kzi	-6114
kzx	-6115
laa	-6116
lbi	-6117
len	-6118
lew	-6119
lgl	-6120
lgw	-6121
lgz	-6122
lmp	-6123
lpo	-6124
lpr	-6125
lpz	-6126
lsg	-6127
lwa	-6128
lwe	-6129
lyb	-6130
lyt	-6131
nar	-6132
nbp	-6133
ngy	-6134
njk	-6135
njz	-6136
nmk	-6137
nwd	-6138
nzb	-6139
nzz	-6140
oau	-6141
obf	-6142
obl	-6143
oec	-6144
oeh	-6145
ofj	-6146
oft	-6147
oit	-6148
oms	-6149
opu	-6150
opx	-6151
orz	-6152
osx	-6153
otk	-6154
owd	-6155
owm	-6156
own	-6157
oyk	-6158
oyq	-6159
oyr	-6160
ozq	-6161
pje	-6162
qad	-6163
qbk	-6164
qby	-6165
qdq	-6166
qef	-6167
qek	-6168
qeo	-6169
qge	-6170
qgy	-6171
qij	-6172
qkc	-6173
qrj	-6174
qrv	-6175
qsn	-6176
qwn	-6177
sef	-6178
tbf	-6179
tbz	-6180
ted	-6181
teq	-6182
tfo	-6183
tft	-6184
tgp	-6185
tif	-6186
tjn	-6187
tmi	-6188
tmj	-6189
tmt	-6190
tsl	-6191
tsn	-6192
tsq	-6193
two	-6194
twx	-6195
tzv	-6196
tzz	-6197
udc	-6198
udq	-6199
udu	-6200
uec	-6201
uex	-6202
ufi	-6203
ufu	-6204
ufx	-6205
ugr	-6206
uhd	-6207
uhu	-6208
ujh	-6209
ujv	-6210
und	-6211
upj	-6212
upt	-6213
ury	-6214
usd	-6215
usw	-6216
utn	-6217
uyo	-6218
vek	-6219
veo	-6220
vio	-6221
viu	-6222
vjn	-6223
vpl	-6224
vsf	-6225
vsl	-6226
vzj	-6227
vzp	-6228
vzv	-6229
xbk	-6230
xbt	-6231
xcc	-6232
xeh	-6233
xes	-6234
xeu	-6235
xfu	-6236
xif	-6237
xiz	-6238
xje	-6239
xjp	-6240
xlo	-6241
xlv	-6242
xmu	-6243
xot	-6244
xph	-6245
xpn	-6246
xpo	-6247
xrf	-6248
xwh	-6249
xyd	-6250
xzn	-6251
xzy	-6252
yjs	-6253
▁223	-6254
▁250	-6255
▁344	-6256
▁362	-6257
▁369	-6258
▁391	-6259
▁394	-6260
▁428	-6261
▁byz	-6262
▁gre	-6263
▁psa	-6264
▁rfa	-6265
▁wbe	-6266
+549?	-6267
+552?	-6268
+897?	-6269
▁1059	-6270
▁1080	-6271
▁1129	-6272
▁1186	-6273
▁1191	-6274
▁1210	-6275
▁1211	-6276
▁1235	-6277
▁1271	-6278
▁1273	-6279
▁1325	-6280
▁1335	-6281
▁1407	-6282
▁1439	-6283
cak	-6284
cbz	-6285
cjh	-6286
cpa	-6287
csb	-6288
csq	-6289
cwo	-6290
cya	-6291
cyk	-6292
cyl	-6293
czv	-6294
czx	-6295
dak	-6296
dba	-6297
dbo	-6298
dbp	-6299
dfq	-6300
djh	-6301
dll	-6302
dou	-6303
dpq	-6304
dpz	-6305
drm	-6306
drn	-6307
dtu	-6308
dyf	-6309
fsj	-6310
fzm	-6311
fzw	-6312
gyw	-6313
gzb	-6314
hbo	-6315
hek	-6316
het	-6317
hfo	-6318
hil	-6319
hjm	-6320
hmg	-6321
hpt	-6322
hrh	-6323
hrk	-6324
hry	-6325
hyq	-6326
kah	-6327
kbc	-6328
kbt	-6329
kec	-6330
kih	-6331
kip	-6332
kiq	-6333
kiw	-6334
kjh	-6335
kln	-6336
kmt	-6337
kmv	-6338
kpf	-6339
ksu	-6340
ktv	-6341
kvq	-6342
kzn	-6343
lak	-6344
lan	-6345
lao	-6346
las	-6347
lay	-6348
lbz	-6349
leq	-6350
lii	-6351
lja	-6352
ljx	-6353
lmg	-6354
lpb	-6355
lrb	-6356
lro	-6357
nbc	-6358
nep	-6359
neu	-6360
nfn	-6361
ngs	-6362
ngt	-6363
ngx	-6364
njn	-6365
nmd	-6366
nmp	-6367
nmu	-6368
nmx	-6369
npm	-6370
npo	-6371
nsu	-6372
nwb	-6373
nwg	-6374
nzv	-6375
oai	-6376
oaj	-6377
obj	-6378
oev	-6379
oiy	-6380
ojo	-6381
oju	-6382
ojx	-6383
ojy	-6384
onk	-6385
opf	-6386
opg	-6387
oph	-6388
orr	-6389
osp	-6390
osu	-6391
owk	-6392
oyv	-6393
oyy	-6394
ozc	-6395
ozh	-6396
ozk	-6397
paw	-6398
prr	-6399
psa	-6400
qbq	-6401
qex	-6402
qfc	-6403
qfg	-6404
qgd	-6405
qhh	-6406
qhk	-6407
qib	-6408
qik	-6409
qjh	-6410
qmh	-6411
qmo	-6412
qmw	-6413
qno	-6414
qpq	-6415
qqx	-6416
qrn	-6417
qvq	-6418
qwf	-6419
seq	-6420
sew	-6421
sey	-6422
taq	-6423
tbh	-6424
tiq	-6425
tjz	-6426
tpm	-6427
tpo	-6428
trh	-6429
twe	-6430
twg	-6431
twu	-6432
tyl	-6433
tyy	-6434
tzf	-6435
tzq	-6436
tzu	-6437
uaq	-6438
ubr	-6439
ues	-6440
ufj	-6441
ufz	-6442
ugc	-6443
ujw	-6444
ult	-6445
ulu	-6446
unk	-6447
unu	-6448
urq	-6449
uwh	-6450
uwt	-6451
uzm	-6452
vag	-6453
vay	-6454
ven	-6455
vfh	-6456
vgd	-6457
vgu	-6458
vgy	-6459
vih	-6460
vmw	-6461
vpq	-6462
vrq	-6463
vru	-6464
vrv	-6465
vyn	-6466
vyp	-6467
vyw	-6468
wss	-6469
wzg	-6470
xdu	-6471
xgq	-6472
xij	-6473
xio	-6474
xjb	-6475
xok	-6476
xtv	-6477
xyq	-6478
yei	-6479
yja	-6480
ysz	-6481
▁201	-6482
▁208	-6483
▁248	-6484
▁276	-6485
▁287	-6486
▁314	-6487
▁319	-6488
▁339	-6489
▁365	-6490
▁377	-6491
▁403	-6492
▁bba	-6493
▁vfa	-6494
+817?	-6495
▁1052	-6496
▁1096	-6497
▁1133	-6498
▁1145	-6499
▁1176	-6500
▁1184	-6501
▁1190	-6502
▁1204	-6503
▁1208	-6504
▁1212	-6505
▁1213	-6506
▁1229	-6507
▁1244	-6508
▁1299	-6509
▁1301	-6510
▁1302	-6511
▁1304	-6512
▁1310	-6513
▁1322	-6514
▁1333	-6515
▁1368	-6516
▁1373	-6517
▁1384	-6518
bee	-6519
ceh	-6520
cfj	-6521
cgd	-6522
cgx	-6523
cji	-6524
cjv	-6525
cmn	-6526
cmp	-6527
cnv	-6528
cpk	-6529
cpx	-6530
cvv	-6531
cvx	-6532
cwn	-6533
cwq	-6534
cyv	-6535
czk	-6536
czn	-6537
czq	-6538
dbk	-6539
dev	-6540
dgc	-6541
dhx	-6542
dif	-6543
djl	-6544
dmc	-6545
dmo	-6546
drh	-6547
drt	-6548
dss	-6549
dvq	-6550
dwh	-6551
dwk	-6552
fjq	-6553
fmb	-6554
gaw	-6555
gix	-6556
grz	-6557
gym	-6558
hbt	-6559
hbv	-6560
heq	-6561
hfd	-6562
hfv	-6563
hic	-6564
hjq	-6565
hmc	-6566
htl	-6567
hwq	-6568
hwx	-6569
hyn	-6570
hyp	-6571
kal	-6572
kbi	-6573
kfb	-6574
kgt	-6575
klt	-6576
knq	-6577
knx	-6578
kov	-6579
kra	-6580
krk	-6581
ksm	-6582
kto	-6583
kvn	-6584
kvt	-6585
kwj	-6586
kwn	-6587
kwo	-6588
kwx	-6589
kyk	-6590
kzl	-6591
kzy	-6592
laq	-6593
lbq	-6594
lbv	-6595
lid	-6596
lig	-6597
lio	-6598
liu	-6599
liv	-6600
liz	-6601
lnn	-6602
lsx	-6603
lwl	-6604
lwm	-6605
lyl	-6606
nak	-6607
nbl	-6608
nbu	-6609
nbv	-6610
nfu	-6611
ngc	-6612
ngl	-6613
nic	-6614
niq	-6615
nme	-6616
npl	-6617
ntv	-6618
nyu	-6619
nyx	-6620
nzc	-6621
oad	-6622
oas	-6623
obx	-6624
oeo	-6625
oer	-6626
ofb	-6627
ofq	-6628
ogo	-6629
ogq	-6630
ogw	-6631
oik	-6632
ojk	-6633
omh	-6634
omu	-6635
omv	-6636
opl	-6637
ott	-6638
owt	-6639
oyd	-6640
oyo	-6641
ozn	-6642
pem	-6643
prz	-6644
qap	-6645
qbn	-6646
qck	-6647
qcu	-6648
qdk	-6649
qer	-6650
qev	-6651
qho	-6652
qkx	-6653
qmk	-6654
qnk	-6655
qoc	-6656
qox	-6657
qpz	-6658
qtv	-6659
qwo	-6660
qwv	-6661
qwy	-6662
qyd	-6663
qzv	-6664
sec	-6665
seu	-6666
sev	-6667
tac	-6668
tam	-6669
tao	-6670
tbo	-6671
tel	-6672
tgl	-6673
tit	-6674
tjv	-6675
tmd	-6676
trl	-6677
trn	-6678
trw	-6679
tso	-6680
twj	-6681
twt	-6682
tzb	-6683
tzy	-6684
uag	-6685
uav	-6686
ubx	-6687
uhc	-6688
uhx	-6689
uso	-6690
uvo	-6691
uwu	-6692
vaf	-6693
vec	-6694
ved	-6695
vgp	-6696
viq	-6697
vit	-6698
vmc	-6699
vmq	-6700
vnv	-6701
vph	-6702
vpk	-6703
vrj	-6704
vwg	-6705
vwl	-6706
vyq	-6707
waa	-6708
wmm	-6709
wzp	-6710
xaq	-6711
xbh	-6712
xcd	-6713
xdq	-6714
xho	-6715
xit	-6716
xjl	-6717
xlu	-6718
xmt	-6719
xpg	-6720
xpj	-6721
xpp	-6722
xrb	-6723
xry	-6724
xsr	-6725
xst	-6726
xta	-6727
xtg	-6728
xuq	-6729
xwu	-6730
xzv	-6731
yel	-6732
▁246	-6733
▁251	-6734
▁270	-6735
▁278	-6736
▁332	-6737
▁371	-6738
▁erz	-6739
▁fwr	-6740
▁ize	-6741
▁nim	-6742
▁ogm	-6743
▁syr	-6744
▁zpm	-6745
+848?	-6746
▁1196	-6747
▁1197	-6748
▁1214	-6749
▁1267	-6750
▁1279	-6751
▁1303	-6752
▁1424	-6753
bag	-6754
brf	-6755
brh	-6756
caw	-6757
cax	-6758
cbh	-6759
cby	-6760
cec	-6761
cfx	-6762
cgm	-6763
chk	-6764
cih	-6765
cii	-6766
cjt	-6767
cod	-6768
cri	-6769
crx	-6770
csh	-6771
cst	-6772
czi	-6773
deb	-6774
dfg	-6775
dfm	-6776
dnn	-6777
dsn	-6778
dsp	-6779
dtd	-6780
dto	-6781
dvl	-6782
dyq	-6783
dyt	-6784
dyx	-6785
fja	-6786
fzb	-6787
gsm	-6788
gzm	-6789
haq	-6790
hbd	-6791
heg	-6792
heu	-6793
hfc	-6794
hft	-6795
hih	-6796
hmn	-6797
hmv	-6798
hso	-6799
hwd	-6800
hzk	-6801
hzo	-6802
hzq	-6803
kaa	-6804
kaq	-6805
kau	-6806
kbd	-6807
kbh	-6808
kel	-6809
kfq	-6810
kjt	-6811
kmd	-6812
kmh	-6813
kmn	-6814
kmy	-6815
kpx	-6816
krq	-6817
ksd	-6818
kye	-6819
kyj	-6820
kyn	-6821
kyz	-6822
kzp	-6823
lau	-6824
lek	-6825
lfk	-6826
lfp	-6827
lgv	-6828
lmu	-6829
lod	-6830
lra	-6831
lrn	-6832
lry	-6833
lst	-6834
lyd	-6835
lzi	-6836
nas	-6837
nat	-6838
nfo	-6839
nfq	-6840
nfx	-6841
nih	-6842
nii	-6843
nio	-6844
nix	-6845
nml	-6846
nrq	-6847
nsl	-6848
nsq	-6849
nwx	-6850
nyv	-6851
nzg	-6852
ojs	-6853
ojv	-6854
oml	-6855
omw	-6856
opd	-6857
opn	-6858
orl	-6859
osa	-6860
osb	-6861
osl	-6862
oto	-6863
owq	-6864
oyc	-6865
oyi	-6866
oyp	-6867
ozz	-6868
pfb	-6869
qac	-6870
qcq	-6871
qix	-6872
qmq	-6873
qmu	-6874
qnd	-6875
qot	-6876
qrq	-6877
qsc	-6878
qwh	-6879
qwx	-6880
qyb	-6881
qyn	-6882
qyy	-6883
qzu	-6884
ses	-6885
sex	-6886
tat	-6887
tav	-6888
tbg	-6889
tbv	-6890
tfd	-6891
tfk	-6892
tfw	-6893
tgb	-6894
tij	-6895
tju	-6896
tmf	-6897
tmn	-6898
tpq	-6899
trm	-6900
trt	-6901
tsu	-6902
twv	-6903
uad	-6904
uak	-6905
uay	-6906
ueu	-6907
ugn	-6908
uir	-6909
uiv	-6910
uld	-6911
ulq	-6912
umh	-6913
umn	-6914
ums	-6915
unl	-6916
uok	-6917
upc	-6918
urs	-6919
urx	-6920
usu	-6921
usx	-6922
utd	-6923
uwf	-6924
uwk	-6925
uwo	-6926
uzb	-6927
uzw	-6928
uzx	-6929
vat	-6930
vff	-6931
vgk	-6932
vmv	-6933
vnc	-6934
wej	-6935
wiy	-6936
wjt	-6937
xbn	-6938
xfa	-6939
xfo	-6940
xgh	-6941
xjt	-6942
xlq	-6943
xlt	-6944
xmv	-6945
xnh	-6946
xnt	-6947
xnv	-6948
xrp	-6949
xsh	-6950
xwq	-6951
xzf	-6952
xzs	-6953
xzz	-6954
yaj	-6955
yfb	-6956
ypb	-6957
ysf	-6958
▁199	-6959
▁224	-6960
▁226	-6961
▁249	-6962
▁256	-6963
▁283	-6964
▁291	-6965
▁333	-6966
▁358	-6967
▁465	-6968
▁bbm	-6969
▁brm	-6970
▁kws	-6971
▁lyr	-6972
▁sfz	-6973
▁yjz	-6974
▁zjm	-6975
▁zpa	-6976
▁zwr	-6977
▁1177	-6978
▁1215	-6979
▁1228	-6980
▁1234	-6981
▁1258	-6982
▁1259	-6983
▁1264	-6984
▁1351	-6985
▁1360	-6986
▁1431	-6987
▁1436	-6988
bfu	-6989
bjf	-6990
bzr	-6991
cac	-6992
cal	-6993
cbc	-6994
cbv	-6995
cbx	-6996
cel	-6997
cfn	-6998
cfo	-6999
cho	-7000
clx	-7001
cso	-7002
ctn	-7003
ctu	-7004
cyp	-7005
dat	-7006
dbl	-7007
dbu	-7008
dbx	-7009
dea	-7010
ded	-7011
deq	-7012
dgz	-7013
djw	-7014
dmq	-7015
dnk	-7016
dso	-7017
fax	-7018
fei	-7019
fiw	-7020
fjb	-7021
fje	-7022
fre	-7023
fsy	-7024
gam	-7025
gms	-7026
gyb	-7027
gzi	-7028
hav	-7029
hhq	-7030
hjv	-7031
hpo	-7032
hpq	-7033
hpv	-7034
hsc	-7035
hsf	-7036
hsl	-7037
hsw	-7038
hyc	-7039
iis	-7040
kav	-7041
kef	-7042
kff	-7043
kgk	-7044
kij	-7045
kit	-7046
kkc	-7047
kkd	-7048
klk	-7049
knc	-7050
knv	-7051
krt	-7052
ksh	-7053
ksk	-7054
ktn	-7055
kvc	-7056
kvu	-7057
kyx	-7058
lav	-7059
lbx	-7060
ley	-7061
lfu	-7062
lgc	-7063
lgf	-7064
lgk	-7065
lgp	-7066
lgt	-7067
lir	-7068
lit	-7069
llk	-7070
lmd	-7071
lmk	-7072
loo	-7073
lpc	-7074
lpk	-7075
lrc	-7076
lwn	-7077
lwq	-7078
lyf	-7079
lzf	-7080
nel	-7081
ngo	-7082
npd	-7083
nrp	-7084
nwu	-7085
nyq	-7086
nzd	-7087
nzx	-7088
oaa	-7089
oan	-7090
ogh	-7091
oid	-7092
ome	-7093
omo	-7094
omq	-7095
onu	-7096
opw	-7097
ord	-7098
orv	-7099
osk	-7100
otn	-7101
otq	-7102
ovo	-7103
owh	-7104
ozd	-7105
ozu	-7106
ozv	-7107
pjr	-7108
pjx	-7109
qav	-7110
qfp	-7111
qjv	-7112
qlh	-7113
qmc	-7114
qoq	-7115
qpf	-7116
qro	-7117
qsk	-7118
qvx	-7119
qym	-7120
qyo	-7121
qyu	-7122
qzg	-7123
qzo	-7124
sas	-7125
taz	-7126
tbp	-7127
tet	-7128
tey	-7129
tix	-7130
tjh	-7131
tmu	-7132
tst	-7133
twk	-7134
tyn	-7135
tys	-7136
ual	-7137
ufb	-7138
ufn	-7139
uib	-7140
uih	-7141
ujo	-7142
unt	-7143
uot	-7144
usq	-7145
utx	-7146
uvn	-7147
uwl	-7148
uwr	-7149
uyf	-7150
uyv	-7151
uzn	-7152
vbx	-7153
vel	-7154
veq	-7155
vfl	-7156
vfn	-7157
vfy	-7158
vgq	-7159
vgt	-7160
vjh	-7161
vme	-7162
vnq	-7163
vrx	-7164
vtd	-7165
vtt	-7166
vtv	-7167
vwc	-7168
vyb	-7169
vyo	-7170
wiz	-7171
wja	-7172
wjj	-7173
wre	-7174
xav	-7175
xea	-7176
xer	-7177
xfp	-7178
xfw	-7179
xgl	-7180
xgt	-7181
xgv	-7182
xin	-7183
xnd	-7184
xol	-7185
xox	-7186
xtl	-7187
xvo	-7188
xxq	-7189
xza	-7190
xzh	-7191
xzj	-7192
yae	-7193
yzs	-7194
▁207	-7195
▁219	-7196
▁230	-7197
▁233	-7198
▁244	-7199
▁253	-7200
▁254	-7201
▁346	-7202
▁352	-7203
▁kpz	-7204
▁pam	-7205
▁qgy	-7206
▁ssi	-7207
▁ssm	-7208
▁tgj	-7209
▁yim	-7210
▁yya	-7211
▁1006	-7212
▁1137	-7213
▁1285	-7214
▁1286	-7215
▁1292	-7216
▁1316	-7217
▁1321	-7218
▁1323	-7219
▁1326	-7220
▁1328	-7221
▁1337	-7222
▁1357	-7223
▁1374	-7224
▁1382	-7225
▁1412	-7226
▁1449	-7227
bam	-7228
bbu	-7229
bij	-7230
bjw	-7231
brq	-7232
ccx	-7233
ced	-7234
cef	-7235
ceq	-7236
cfq	-7237
cjx	-7238
cmc	-7239
cmo	-7240
cnu	-7241
cpg	-7242
czc	-7243
dfc	-7244
dfp	-7245
dfu	-7246
dhc	-7247
dhd	-7248
dkc	-7249
dmt	-7250
dwg	-7251
dwu	-7252
dwv	-7253
dzc	-7254
dzq	-7255
dzu	-7256
fmi	-7257
frf	-7258
gar	-7259
gez	-7260
gfy	-7261
gmb	-7262
gpy	-7263
grb	-7264
grj	-7265
grs	-7266
gwk	-7267
gzz	-7268
hah	-7269
hay	-7270
hby	-7271
hdc	-7272
hec	-7273
hgk	-7274
hho	-7275
hlu	-7276
hnh	-7277
hps	-7278
hrb	-7279
hrc	-7280
hsk	-7281
hsn	-7282
hvt	-7283
hzh	-7284
hzt	-7285
hzz	-7286
img	-7287
jee	-7288
kbk	-7289
kfv	-7290
kga	-7291
kjf	-7292
kjn	-7293
kku	-7294
kkx	-7295
kpo	-7296
kro	-7297
krx	-7298
kvl	-7299
kww	-7300
kyh	-7301
kyu	-7302
lat	-7303
lfo	-7304
lgh	-7305
lgu	-7306
ljk	-7307
ljl	-7308
lll	-7309
lml	-7310
lmx	-7311
lnd	-7312
lpp	-7313
lrv	-7314
lvd	-7315
lvv	-7316
lyn	-7317
lzb	-7318
lzg	-7319
neo	-7320
nfh	-7321
niv	-7322
njc	-7323
nmq	-7324
npq	-7325
npu	-7326
nrn	-7327
nsb	-7328
nwh	-7329
nzl	-7330
nzu	-7331
oao	-7332
oat	-7333
obn	-7334
oel	-7335
ofp	-7336
ofu	-7337
oiq	-7338
onv	-7339
opt	-7340
oro	-7341
ozf	-7342
ozl	-7343
pmj	-7344
psj	-7345
qak	-7346
qbv	-7347
qfo	-7348
qfx	-7349
qgc	-7350
qhl	-7351
qid	-7352
qjt	-7353
qll	-7354
qnn	-7355
qnq	-7356
qpb	-7357
qto	-7358
qtt	-7359
qvv	-7360
qyv	-7361
taf	-7362
tej	-7363
teu	-7364
tex	-7365
tfi	-7366
tgt	-7367
tgx	-7368
tic	-7369
tjx	-7370
tma	-7371
tmp	-7372
trk	-7373
tru	-7374
tsr	-7375
tyd	-7376
tye	-7377
tyt	-7378
tyu	-7379
tyw	-7380
uev	-7381
ufl	-7382
ufo	-7383
uht	-7384
uio	-7385
uju	-7386
uoc	-7387
uoo	-7388
uoq	-7389
uph	-7390
urt	-7391
urz	-7392
uyx	-7393
vbk	-7394
vfj	-7395
vip	-7396
vjo	-7397
vml	-7398
vmt	-7399
vry	-7400
vsd	-7401
vtc	-7402
vtq	-7403
vzn	-7404
wea	-7405
wfb	-7406
wir	-7407
wpu	-7408
xaf	-7409
xau	-7410
xbr	-7411
xfc	-7412
xfl	-7413
xhh	-7414
xhv	-7415
xih	-7416
xix	-7417
xjq	-7418
xld	-7419
xln	-7420
xnk	-7421
xpd	-7422
xpt	-7423
xqx	-7424
xrd	-7425
xrh	-7426
xtd	-7427
xvu	-7428
xwd	-7429
xwk	-7430
xwx	-7431
xwz	-7432
xzp	-7433
yfn	-7434
▁204	-7435
▁225	-7436
▁235	-7437
▁238	-7438
▁252	-7439
▁297	-7440
▁305	-7441
▁316	-7442
▁318	-7443
▁341	-7444
▁360	-7445
▁444	-7446
▁bbz	-7447
▁dfa	-7448
▁djm	-7449
▁ijm	-7450
▁ipi	-7451
▁jwz	-7452
▁jze	-7453
▁mye	-7454
▁qyi	-7455
▁rsz	-7456
▁xyz	-7457
▁1158	-7458
▁1160	-7459
▁1169	-7460
▁1180	-7461
▁1207	-7462
▁1245	-7463
▁1309	-7464
▁1338	-7465
▁1391	-7466
▁1413	-7467
▁1416	-7468
▁1434	-7469
▁1446	-7470
▁1448	-7471
▁1453	-7472
bjb	-7473
bjn	-7474
bsr	-7475
bza	-7476
bzs	-7477
cad	-7478
caq	-7479
cat	-7480
cbq	-7481
ccc	-7482
cdx	-7483
cfd	-7484
cgn	-7485
cix	-7486
cjb	-7487
clo	-7488
cnd	-7489
cpu	-7490
cqx	-7491
cry	-7492
csg	-7493
csx	-7494
cto	-7495
cwc	-7496
czb	-7497
dbv	-7498
dgx	-7499
diz	-7500
djb	-7501
dju	-7502
djx	-7503
dld	-7504
dlu	-7505
dnv	-7506
dol	-7507
dsh	-7508
dsv	-7509
dtq	-7510
dyk	-7511
fme	-7512
fmj	-7513
fms	-7514
frs	-7515
gee	-7516
gfk	-7517
gre	-7518
grf	-7519
grm	-7520
grr	-7521
gsi	-7522
gyj	-7523
hbc	-7524
hbx	-7525
hep	-7526
hgc	-7527
hgf	-7528
hgp	-7529
hju	-7530
hmd	-7531
hmt	-7532
hpn	-7533
hpx	-7534
hrq	-7535
hzv	-7536
jed	-7537
kaf	-7538
kak	-7539
kao	-7540
kfu	-7541
kgd	-7542
kgn	-7543
khl	-7544
khv	-7545
kjc	-7546
kjk	-7547
koc	-7548
kok	-7549
kpk	-7550
kpq	-7551
krn	-7552
krs	-7553
kwu	-7554
kyo	-7555
lah	-7556
lbc	-7557
lbh	-7558
ler	-7559
lie	-7560
lix	-7561
ljh	-7562
lkq	-7563
llh	-7564
lma	-7565
lmh	-7566
lol	-7567
lrg	-7568
lrk	-7569
lsq	-7570
lwc	-7571
lwk	-7572
lwo	-7573
lyo	-7574
neq	-7575
nfl	-7576
nik	-7577
njl	-7578
njq	-7579
nre	-7580
nsv	-7581
nsx	-7582
nyg	-7583
ofc	-7584
ofd	-7585
ofx	-7586
orx	-7587
osq	-7588
owu	-7589
ozt	-7590
pai	-7591
pam	-7592
peg	-7593
piw	-7594
prj	-7595
prm	-7596
psf	-7597
qao	-7598
qay	-7599
qbh	-7600
qet	-7601
qeu	-7602
qfk	-7603
qgh	-7604
qgo	-7605
qiu	-7606
qiw	-7607
qmd	-7608
qou	-7609
qrg	-7610
qtk	-7611
qyz	-7612
sem	-7613
smw	-7614
tau	-7615
tfx	-7616
tgq	-7617
tgy	-7618
tid	-7619
tim	-7620
tio	-7621
trv	-7622
tsx	-7623
tyf	-7624
tzh	-7625
ubs	-7626
uhn	-7627
uho	-7628
uid	-7629
uil	-7630
ulo	-7631
ulx	-7632
umt	-7633
umv	-7634
unq	-7635
urh	-7636
uvk	-7637
uzh	-7638
vet	-7639
vfc	-7640
vmn	-7641
vpd	-7642
vpg	-7643
vri	-7644
vro	-7645
vsu	-7646
vsv	-7647
vvo	-7648
vwx	-7649
waf	-7650
wif	-7651
wje	-7652
wrg	-7653
xdx	-7654
xfq	-7655
xgc	-7656
xgx	-7657
xhl	-7658
xhx	-7659
xiq	-7660
xkx	-7661
xmo	-7662
xnc	-7663
xrq	-7664
xuk	-7665
xvh	-7666
xyp	-7667
yak	-7668
yfp	-7669
yie	-7670
▁209	-7671
▁258	-7672
▁274	-7673
▁277	-7674
▁279	-7675
▁290	-7676
▁293	-7677
▁309	-7678
▁367	-7679
▁389	-7680
▁440	-7681
▁bfz	-7682
▁bmr	-7683
▁cii	-7684
▁cmm	-7685
▁drz	-7686
▁eja	-7687
▁gee	-7688
▁gsa	-7689
▁gyr	-7690
▁mzz	-7691
▁oie	-7692
▁rbi	-7693
▁tyz	-7694
▁uaz	-7695
▁zaa	-7696
▁zme	-7697
▁zpi	-7698
▁1275	-7699
▁1282	-7700
▁1289	-7701
▁1345	-7702
▁1349	-7703
▁1352	-7704
▁1377	-7705
▁1394	-7706
▁1422	-7707
▁1487	-7708
▁1495	-7709
aza	-7710
bei	-7711
biz	-7712
bme	-7713
bmg	-7714
bsj	-7715
bwg	-7716
bzm	-7717
cbd	-7718
ceu	-7719
cit	-7720
cmq	-7721
cnc	-7722
cpv	-7723
cuk	-7724
czd	-7725
ddd	-7726
dfi	-7727
dfj	-7728
dfk	-7729
dfr	-7730
dgu	-7731
dij	-7732
div	-7733
dlq	-7734
dlx	-7735
dmk	-7736
don	-7737
dpc	-7738
dpx	-7739
dro	-7740
drq	-7741
drx	-7742
dvk	-7743
dzj	-7744
fee	-7745
fez	-7746
fjs	-7747
fmg	-7748
fra	-7749
fsr	-7750
gew	-7751
gie	-7752
gig	-7753
gim	-7754
giz	-7755
gyf	-7756
gzf	-7757
hak	-7758
hbk	-7759
hbn	-7760
hel	-7761
hex	-7762
hfk	-7763
hfm	-7764
hfu	-7765
hgs	-7766
hgu	-7767
hkx	-7768
hnd	-7769
hrl	-7770
hrv	-7771
hyj	-7772
jre	-7773
kat	-7774
kbj	-7775
kst	-7776
ktl	-7777
ktt	-7778
ktx	-7779
kvv	-7780
kwg	-7781
lip	-7782
liq	-7783
lrh	-7784
lrl	-7785
lru	-7786
lrx	-7787
lsd	-7788
ltv	-7789
lwb	-7790
lzt	-7791
nnh	-7792
npc	-7793
nry	-7794
nsd	-7795
nwc	-7796
nwq	-7797
nzo	-7798
oah	-7799
ogc	-7800
ogk	-7801
ojn	-7802
ool	-7803
orw	-7804
peh	-7805
pek	-7806
pmi	-7807
qfd	-7808
qfn	-7809
qhc	-7810
qjk	-7811
qku	-7812
qld	-7813
qlq	-7814
qlu	-7815
qmt	-7816
qnh	-7817
qnu	-7818
qnv	-7819
qpd	-7820
qpn	-7821
qpp	-7822
qrk	-7823
qrp	-7824
qsu	-7825
quq	-7826
qvn	-7827
qwc	-7828
qwu	-7829
qzb	-7830
qzk	-7831
qzl	-7832
tbn	-7833
tfc	-7834
tjl	-7835
tjy	-7836
tmh	-7837
tml	-7838
tmx	-7839
trq	-7840
tyh	-7841
tyo	-7842
tzc	-7843
tzw	-7844
ugv	-7845
uhl	-7846
uhv	-7847
uic	-7848
uik	-7849
ukd	-7850
ups	-7851
uth	-7852
utv	-7853
uvu	-7854
uyd	-7855
uyw	-7856
vac	-7857
vah	-7858
vbl	-7859
vfq	-7860
vin	-7861
vtx	-7862
vyu	-7863
wab	-7864
wms	-7865
wsb	-7866
xcu	-7867
xed	-7868
xfv	-7869
xfx	-7870
xhc	-7871
xid	-7872
xll	-7873
xmk	-7874
xmq	-7875
xms	-7876
xod	-7877
xpb	-7878
xrl	-7879
xrv	-7880
xsk	-7881
xso	-7882
xvq	-7883
yer	-7884
yes	-7885
yfk	-7886
yjb	-7887
yjz	-7888
ymg	-7889
▁228	-7890
▁232	-7891
▁245	-7892
▁265	-7893
▁286	-7894
▁463	-7895
▁ayz	-7896
▁dpr	-7897
▁dwr	-7898
▁hys	-7899
▁ljz	-7900
▁lyz	-7901
▁mpi	-7902
▁rzi	-7903
▁saz	-7904
▁sjm	-7905
▁ubr	-7906
▁wgz	-7907
▁ywr	-7908
▁zfz	-7909
▁zsa	-7910
+536?	-7911
▁1247	-7912
▁1280	-7913
▁1281	-7914
▁1300	-7915
▁1311	-7916
▁1312	-7917
▁1331	-7918
▁1342	-7919
▁1365	-7920
▁1367	-7921
▁1378	-7922
▁1429	-7923
▁1470	-7924
bem	-7925
bji	-7926
bjy	-7927
bmb	-7928
bsf	-7929
bso	-7930
cht	-7931
ciq	-7932
cld	-7933
cmx	-7934
csc	-7935
cuq	-7936
cvd	-7937
cwd	-7938
cwl	-7939
dbq	-7940
ddk	-7941
ddx	-7942
dfl	-7943
dfn	-7944
dft	-7945
diy	-7946
djd	-7947
djv	-7948
dlc	-7949
dlv	-7950
dmn	-7951
dmv	-7952
dno	-7953
dnu	-7954
dnx	-7955
drd	-7956
drk	-7957
dsu	-7958
faz	-7959
fjm	-7960
fjp	-7961
fri	-7962
fsz	-7963
gem	-7964
gfh	-7965
gfw	-7966
gmi	-7967
gmy	-7968
gri	-7969
gsz	-7970
gwl	-7971
gyi	-7972
haf	-7973
hbh	-7974
heh	-7975
hfq	-7976
hjc	-7977
hml	-7978
hpk	-7979
hsu	-7980
htt	-7981
hvq	-7982
hvx	-7983
hwo	-7984
hyl	-7985
iii	-7986
kax	-7987
kbu	-7988
kbx	-7989
kfm	-7990
kgc	-7991
kjd	-7992
kjq	-7993
kju	-7994
kkq	-7995
klq	-7996
klx	-7997
kml	-7998
kmx	-7999
knn	-8000
koo	-8001
kpn	-8002
krd	-8003
ktk	-8004
lax	-8005
lkc	-8006
lld	-8007
lvk	-8008
lvu	-8009
lzc	-8010
lzh	-8011
ngd	-8012
ngu	-8013
nid	-8014
njh	-8015
nmn	-8016
npn	-8017
nru	-8018
oac	-8019
oal	-8020
obd	-8021
ofh	-8022
ojt	-8023
ond	-8024
ont	-8025
opk	-8026
opq	-8027
ora	-8028
ork	-8029
osd	-8030
ost	-8031
otl	-8032
ovx	-8033
owc	-8034
owx	-8035
pas	-8036
pic	-8037
pmz	-8038
ppg	-8039
psm	-8040
pwp	-8041
qec	-8042
qeh	-8043
qgk	-8044
qhx	-8045
qir	-8046
qok	-8047
qpo	-8048
qvl	-8049
qvu	-8050
qwt	-8051
qyt	-8052
rab	-8053
rrj	-8054
smp	-8055
tgh	-8056
tjc	-8057
tmo	-8058
tpu	-8059
tsh	-8060
tsk	-8061
tsv	-8062
twc	-8063
tzn	-8064
uac	-8065
ubq	-8066
udd	-8067
udk	-8068
uen	-8069
ueq	-8070
ugb	-8071
uit	-8072
ujd	-8073
ujk	-8074
umk	-8075
unx	-8076
ush	-8077
uyc	-8078
uyh	-8079
val	-8080
vbt	-8081
vfo	-8082
vgn	-8083
vjt	-8084
vmp	-8085
vpx	-8086
vtn	-8087
vwo	-8088
wep	-8089
wer	-8090
wim	-8091
wip	-8092
wjm	-8093
xan	-8094
xge	-8095
xgo	-8096
xjd	-8097
xlk	-8098
xmi	-8099
xnx	-8100
xpu	-8101
xsl	-8102
xtk	-8103
xtx	-8104
xtz	-8105
ybp	-8106
yee	-8107
ygn	-8108
yma	-8109
ymr	-8110
ymz	-8111
yri	-8112
▁210	-8113
▁214	-8114
▁222	-8115
▁257	-8116
▁259	-8117
▁263	-8118
▁303	-8119
▁385	-8120
▁aye	-8121
▁bjz	-8122
▁cfi	-8123
▁ejz	-8124
▁gba	-8125
▁gzz	-8126
▁irm	-8127
▁lpz	-8128
▁lwm	-8129
▁mam	-8130
▁oja	-8131
▁ozi	-8132
▁pws	-8133
▁rbz	-8134
▁tjz	-8135
▁uee	-8136
▁wga	-8137
▁wgr	-8138
▁xyr	-8139
▁yee	-8140
▁yje	-8141
▁1143	-8142
▁1225	-8143
▁1226	-8144
▁1315	-8145
▁1318	-8146
▁1370	-8147
▁1396	-8148
▁1430	-8149
▁1433	-8150
▁1437	-8151
▁1438	-8152
▁1442	-8153
▁1464	-8154
▁1492	-8155
▁1523	-8156
bew	-8157
bey	-8158
bff	-8159
bft	-8160
big	-8161
bip	-8162
bjg	-8163
bms	-8164
bmy	-8165
bmz	-8166
bsg	-8167
bwv	-8168
car	-8169
cas	-8170
cbo	-8171
cbs	-8172
cln	-8173
cou	-8174
cox	-8175
cpl	-8176
crk	-8177
csu	-8178
cvq	-8179
czl	-8180
dbt	-8181
dex	-8182
dhu	-8183
dhv	-8184
did	-8185
djo	-8186
dlt	-8187
dnt	-8188
dot	-8189
dst	-8190
dtc	-8191
dwl	-8192
fir	-8193
fmp	-8194
fsi	-8195
fsn	-8196
gey	-8197
gmg	-8198
gsc	-8199
gsx	-8200
gyg	-8201
hhc	-8202
hld	-8203
hmx	-8204
hwt	-8205
hyo	-8206
iiy	-8207
jir	-8208
kad	-8209
kew	-8210
khu	-8211
ksx	-8212
ktq	-8213
kvo	-8214
kvx	-8215
kwq	-8216
kyf	-8217
kzh	-8218
lbu	-8219
leu	-8220
lfq	-8221
lgx	-8222
lik	-8223
lin	-8224
ljq	-8225
lju	-8226
llt	-8227
lnk	-8228
lnu	-8229
lou	-8230
lrd	-8231
lrj	-8232
lzu	-8233
mzs	-8234
nal	-8235
neh	-8236
ngk	-8237
nmt	-8238
nsn	-8239
nvu	-8240
nvx	-8241
obz	-8242
ofo	-8243
oiu	-8244
omd	-8245
omk	-8246
onl	-8247
orn	-8248
osh	-8249
osz	-8250
otx	-8251
oyh	-8252
paj	-8253
pau	-8254
ped	-8255
pet	-8256
pmw	-8257
prf	-8258
psr	-8259
qdx	-8260
qfl	-8261
qgn	-8262
qic	-8263
qin	-8264
qiv	-8265
qjx	-8266
qlc	-8267
qml	-8268
qmx	-8269
qpk	-8270
qsq	-8271
qtc	-8272
quc	-8273
qvh	-8274
rer	-8275
sed	-8276
smi	-8277
szj	-8278
tbl	-8279
tfv	-8280
tmq	-8281
tnh	-8282
tpc	-8283
tpd	-8284
tpl	-8285
twh	-8286
ufh	-8287
ugd	-8288
ujq	-8289
umd	-8290
umo	-8291
unc	-8292
uon	-8293
urd	-8294
utc	-8295
utt	-8296
uux	-8297
viv	-8298
vnh	-8299
vnl	-8300
vnn	-8301
vpt	-8302
vth	-8303
vvc	-8304
vvv	-8305
wei	-8306
wes	-8307
wfy	-8308
wic	-8309
wie	-8310
wil	-8311
wzb	-8312
xbo	-8313
xeq	-8314
xfd	-8315
xik	-8316
xmx	-8317
xrx	-8318
xwc	-8319
xxx	-8320
xyh	-8321
xyk	-8322
ybt	-8323
▁231	-8324
▁234	-8325
▁268	-8326
▁285	-8327
▁298	-8328
▁299	-8329
▁355	-8330
▁ami	-8331
▁aya	-8332
▁brz	-8333
▁cja	-8334
▁djz	-8335
▁epm	-8336
▁hzz	-8337
▁ije	-8338
▁jee	-8339
▁kpm	-8340
▁kpr	-8341
▁kwm	-8342
▁lwj	-8343
▁lya	-8344
▁pae	-8345
▁pfz	-8346
▁qim	-8347
▁sei	-8348
▁sme	-8349
▁tys	-8350
▁uei	-8351
▁ugi	-8352
▁upa	-8353
▁vae	-8354
▁vvw	-8355
▁wrm	-8356
▁yrz	-8357
▁1246	-8358
▁1260	-8359
▁1317	-8360
▁1327	-8361
▁1330	-8362
▁1336	-8363
▁1341	-8364
▁1363	-8365
▁1383	-8366
▁1399	-8367
▁1401	-8368
▁1402	-8369
▁1427	-8370
▁1471	-8371
▁1479	-8372
▁1500	-8373
▁1507	-8374
▁1516	-8375
▁1532	-8376
▁1548	-8377
bae	-8378
bai	-8379
bed	-8380
bfh	-8381
bjl	-8382
bra	-8383
bzb	-8384
cdu	-8385
cfh	-8386
clv	-8387
cnx	-8388
cot	-8389
cpc	-8390
crt	-8391
cuc	-8392
cux	-8393
cvt	-8394
cyd	-8395
dlh	-8396
dov	-8397
dtn	-8398
dtx	-8399
fer	-8400
fes	-8401
fex	-8402
fid	-8403
fis	-8404
fsm	-8405
fso	-8406
fsp	-8407
gbt	-8408
gea	-8409
geg	-8410
gei	-8411
geo	-8412
gib	-8413
gjr	-8414
gpb	-8415
gss	-8416
gwg	-8417
gzs	-8418
hbq	-8419
hdx	-8420
hed	-8421
hjx	-8422
hlc	-8423
hmk	-8424
hnk	-8425
hpu	-8426
htc	-8427
hux	-8428
hvn	-8429
hyd	-8430
iif	-8431
keq	-8432
keu	-8433
kgu	-8434
kin	-8435
kio	-8436
kkk	-8437
kmc	-8438
knk	-8439
knl	-8440
kpc	-8441
kpu	-8442
kyd	-8443
kyt	-8444
kzk	-8445
lal	-8446
led	-8447
lmt	-8448
lno	-8449
lnx	-8450
lzd	-8451
lzl	-8452
lzn	-8453
lzx	-8454
nax	-8455
nbq	-8456
nbx	-8457
nec	-8458
nff	-8459
ngv	-8460
niu	-8461
njv	-8462
nnn	-8463
nyb	-8464
nzh	-8465
obo	-8466
oed	-8467
oio	-8468
oiv	-8469
olq	-8470
olu	-8471
ono	-8472
ook	-8473
opc	-8474
pay	-8475
pez	-8476
pia	-8477
pis	-8478
pjv	-8479
pjw	-8480
pjy	-8481
prg	-8482
pro	-8483
pss	-8484
pwy	-8485
pza	-8486
pzb	-8487
pzw	-8488
pzz	-8489
qan	-8490
qkd	-8491
qsh	-8492
qsl	-8493
qth	-8494
qyc	-8495
rmp	-8496
sae	-8497
sso	-8498
tan	-8499
tas	-8500
tbd	-8501
til	-8502
tph	-8503
tpk	-8504
tpn	-8505
trd	-8506
twq	-8507
tyj	-8508
tyx	-8509
tzo	-8510
ubk	-8511
umx	-8512
unv	-8513
uou	-8514
upu	-8515
url	-8516
uru	-8517
utk	-8518
vak	-8519
vav	-8520
vax	-8521
vbo	-8522
vfk	-8523
vfu	-8524
vgx	-8525
vik	-8526
vjl	-8527
vmx	-8528
vpc	-8529
vsx	-8530
vvq	-8531
waj	-8532
wfp	-8533
wih	-8534
wik	-8535
wrb	-8536
wrr	-8537
wsr	-8538
wsw	-8539
xad	-8540
xbx	-8541
xec	-8542
xhk	-8543
xkd	-8544
xlh	-8545
xoq	-8546
xsu	-8547
xzc	-8548
yfw	-8549
yiy	-8550
yje	-8551
ymm	-8552
yrp	-8553
ysm	-8554
yst	-8555
yzf	-8556
yzz	-8557
▁242	-8558
▁295	-8559
▁439	-8560
▁arz	-8561
▁azz	-8562
▁cae	-8563
▁cam	-8564
▁cwm	-8565
▁cze	-8566
▁dsm	-8567
▁far	-8568
▁jzz	-8569
▁kje	-8570
▁lga	-8571
▁lrz	-8572
▁lsz	-8573
▁ngm	-8574
▁nwa	-8575
▁nzz	-8576
▁ort	-8577
▁qee	-8578
▁qie	-8579
▁sgj	-8580
▁spe	-8581
▁tsr	-8582
▁tzm	-8583
▁ugz	-8584
▁uie	-8585
▁ujm	-8586
▁ujr	-8587
▁vrm	-8588
▁xgj	-8589
▁xls	-8590
▁zrz	-8591
▁1165	-8592
▁1278	-8593
▁1284	-8594
▁1305	-8595
▁1348	-8596
▁1362	-8597
▁1389	-8598
▁1395	-8599
▁1411	-8600
▁1415	-8601
▁1443	-8602
▁1462	-8603
▁1489	-8604
▁1534	-8605
▁1571	-8606
aaj	-8607
baj	-8608
baz	-8609
bif	-8610
brb	-8611
brp	-8612
bzf	-8613
cdq	-8614
cgt	-8615
cgv	-8616
ckd	-8617
col	-8618
csp	-8619
dek	-8620
dhq	-8621
dkq	-8622
dnh	-8623
dnq	-8624
dvx	-8625
dwd	-8626
dyu	-8627
fag	-8628
fap	-8629
far	-8630
fjh	-8631
fjw	-8632
fmm	-8633
frh	-8634
gav	-8635
gfc	-8636
gff	-8637
gmn	-8638
gmu	-8639
gpg	-8640
grd	-8641
grg	-8642
gsf	-8643
gsj	-8644
gwc	-8645
gya	-8646
hgx	-8647
hhl	-8648
hhu	-8649
hto	-8650
htq	-8651
hvc	-8652
hzc	-8653
iia	-8654
iie	-8655
iig	-8656
iim	-8657
imj	-8658
jif	-8659
kdc	-8660
kev	-8661
kgy	-8662
khc	-8663
kpl	-8664
krv	-8665
ksl	-8666
ksr	-8667
ldk	-8668
ldq	-8669
lex	-8670
lfc	-8671
lfd	-8672
llo	-8673
llv	-8674
lnl	-8675
lpe	-8676
ltc	-8677
ltl	-8678
lto	-8679
ltu	-8680
lwu	-8681
lyv	-8682
nau	-8683
nph	-8684
nrc	-8685
nvq	-8686
nzn	-8687
obh	-8688
odq	-8689
ojd	-8690
onn	-8691
oox	-8692
otd	-8693
oth	-8694
ovc	-8695
ovk	-8696
ozx	-8697
pgd	-8698
pif	-8699
prs	-8700
psn	-8701
psq	-8702
pwb	-8703
pzk	-8704
pzo	-8705
pzp	-8706
qbo	-8707
qfv	-8708
qhd	-8709
qnl	-8710
qpx	-8711
qsx	-8712
qtl	-8713
qwg	-8714
qyp	-8715
qzc	-8716
raf	-8717
tad	-8718
tbc	-8719
tbk	-8720
tgo	-8721
twl	-8722
tyq	-8723
ueh	-8724
uel	-8725
ufq	-8726
uhk	-8727
uin	-8728
ujx	-8729
ukq	-8730
uml	-8731
unh	-8732
uox	-8733
utq	-8734
uyb	-8735
uzu	-8736
vdx	-8737
vft	-8738
vgv	-8739
vpu	-8740
vrc	-8741
vrh	-8742
vsq	-8743
vto	-8744
vwn	-8745
vwv	-8746
vwy	-8747
vzq	-8748
wee	-8749
weg	-8750
wen	-8751
wfn	-8752
wjv	-8753
wmr	-8754
wri	-8755
wzs	-8756
xbd	-8757
xdc	-8758
xeo	-8759
xfh	-8760
xhd	-8761
xjh	-8762
xnu	-8763
xpc	-8764
xrc	-8765
xsc	-8766
xsx	-8767
xth	-8768
xwf	-8769
yea	-8770
yeb	-8771
yet	-8772
yfg	-8773
yib	-8774
yit	-8775
yjw	-8776
yjy	-8777
ymf	-8778
ywy	-8779
yzy	-8780
▁211	-8781
▁272	-8782
▁275	-8783
▁aae	-8784
▁apa	-8785
▁egj	-8786
▁ewz	-8787
▁fwj	-8788
▁gie	-8789
▁gmz	-8790
▁hja	-8791
▁hjm	-8792
▁hma	-8793
▁hss	-8794
▁ibe	-8795
▁jjz	-8796
▁jmi	-8797
▁kee	-8798
▁kfz	-8799
▁kze	-8800
▁mwm	-8801
▁nja	-8802
▁njz	-8803
▁nri	-8804
▁prz	-8805
▁psm	-8806
▁qae	-8807
▁qgm	-8808
▁qme	-8809
▁qsi	-8810
▁rga	-8811
▁rgy	-8812
▁rsa	-8813
▁sim	-8814
▁sya	-8815
▁uje	-8816
▁uze	-8817
▁vrz	-8818
▁vsm	-8819
▁wfi	-8820
▁xsj	-8821
▁xws	-8822
▁zsz	-8823
▁1110	-8824
▁1290	-8825
▁1297	-8826
▁1320	-8827
▁1332	-8828
▁1346	-8829
▁1347	-8830
▁1457	-8831
▁1483	-8832
▁1496	-8833
▁1519	-8834
▁1525	-8835
▁1545	-8836
▁1570	-8837
asy	-8838
baa	-8839
bbt	-8840
bfg	-8841
bfy	-8842
biv	-8843
bjk	-8844
bmr	-8845
bwd	-8846
bzo	-8847
cbl	-8848
cdd	-8849
cdk	-8850
cft	-8851
coo	-8852
crc	-8853
cvh	-8854
cwu	-8855
cwx	-8856
ddc	-8857
dec	-8858
dfx	-8859
dmu	-8860
dod	-8861
dph	-8862
dth	-8863
dyw	-8864
faa	-8865
fay	-8866
fec	-8867
fek	-8868
fjf	-8869
fji	-8870
fwg	-8871
fwt	-8872
gbg	-8873
gby	-8874
geq	-8875
ger	-8876
gra	-8877
gsp	-8878
gsw	-8879
gwp	-8880
hbu	-8881
hdk	-8882
hhh	-8883
hjn	-8884
hnq	-8885
hnt	-8886
hnu	-8887
hoh	-8888
hok	-8889
hol	-8890
hoo	-8891
hoq	-8892
hpd	-8893
hvk	-8894
iio	-8895
jiz	-8896
kgq	-8897
kmu	-8898
kzu	-8899
kzv	-8900
llx	-8901
lmc	-8902
lnt	-8903
lpq	-8904
lyh	-8905
lyx	-8906
nex	-8907
nfc	-8908
njx	-8909
nlq	-8910
npx	-8911
oet	-8912
ofk	-8913
ogx	-8914
onq	-8915
otc	-8916
ovu	-8917
owp	-8918
pbq	-8919
pea	-8920
pfx	-8921
pie	-8922
piz	-8923
pmf	-8924
ppp	-8925
prd	-8926
pri	-8927
prn	-8928
psg	-8929
pso	-8930
psy	-8931
pww	-8932
qpu	-8933
qrl	-8934
qsr	-8935
quk	-8936
ssf	-8937
tai	-8938
tbq	-8939
tev	-8940
tjk	-8941
trc	-8942
tsd	-8943
tyc	-8944
ubt	-8945
ugx	-8946
ujj	-8947
upl	-8948
vbn	-8949
vfp	-8950
vid	-8951
vsc	-8952
vzt	-8953
wai	-8954
wby	-8955
weo	-8956
wis	-8957
wjz	-8958
wrm	-8959
wrz	-8960
wsz	-8961
xah	-8962
xjc	-8963
xsq	-8964
xtc	-8965
xtu	-8966
ybd	-8967
yez	-8968
yft	-8969
yfx	-8970
yfy	-8971
yil	-8972
yji	-8973
yjr	-8974
ymp	-8975
yrg	-8976
ysb	-8977
ysi	-8978
yyo	-8979
▁329	-8980
▁357	-8981
▁aaz	-8982
▁afs	-8983
▁agi	-8984
▁aje	-8985
▁are	-8986
▁bfi	-8987
▁bga	-8988
▁bsz	-8989
▁cgj	-8990
▁dfz	-8991
▁dyr	-8992
▁eee	-8993
▁fam	-8994
▁fja	-8995
▁fmi	-8996
▁fpm	-8997
▁fre	-8998
▁fsz	-8999
▁gjz	-9000
▁hre	-9001
▁hrm	-9002
▁hze	-9003
▁izz	-9004
▁kae	-9005
▁kgi	-9006
▁kyr	-9007
▁lwa	-9008
▁mie	-9009
▁mjm	-9010
▁nsa	-9011
▁nzm	-9012
▁ojz	-9013
▁oxa	-9014
▁pja	-9015
▁qiz	-9016
▁qjr	-9017
▁rie	-9018
▁rri	-9019
▁sjj	-9020
▁sre	-9021
▁szz	-9022
▁tzz	-9023
▁uja	-9024
▁vim	-9025
▁vwm	-9026
▁wgm	-9027
▁wmz	-9028
▁xba	-9029
▁zie	-9030
▁1239	-9031
▁1340	-9032
▁1356	-9033
▁1358	-9034
▁1369	-9035
▁1381	-9036
▁1386	-9037
▁1390	-9038
▁1393	-9039
▁1409	-9040
▁1417	-9041
▁1466	-9042
▁1498	-9043
▁1501	-9044
▁1636	-9045
azh	-9046
bfw	-9047
bis	-9048
bmm	-9049
bmo	-9050
bmp	-9051
brw	-9052
bsu	-9053
bsy	-9054
cfk	-9055
con	-9056
crd	-9057
ctl	-9058
ctq	-9059
ddq	-9060
dgh	-9061
dic	-9062
dox	-9063
dtk	-9064
dwo	-9065
faq	-9066
feu	-9067
fip	-9068
fjj	-9069
fjy	-9070
fmh	-9071
frd	-9072
frg	-9073
frz	-9074
gaf	-9075
gal	-9076
gay	-9077
gbo	-9078
geh	-9079
gep	-9080
ggd	-9081
gir	-9082
gjj	-9083
gjw	-9084
gmw	-9085
grw	-9086
gsy	-9087
gyk	-9088
gys	-9089
gzy	-9090
hiq	-9091
hjk	-9092
hth	-9093
htn	-9094
imi	-9095
jrk	-9096
kdk	-9097
klc	-9098
krl	-9099
kzq	-9100
ldc	-9101
ldx	-9102
lec	-9103
lgq	-9104
lln	-9105
lnc	-9106
lnh	-9107
lnv	-9108
loq	-9109
lov	-9110
lsh	-9111
lsu	-9112
lvo	-9113
ntt	-9114
nzq	-9115
odc	-9116
odk	-9117
ogd	-9118
omn	-9119
ovq	-9120
owv	-9121
ozp	-9122
peb	-9123
pep	-9124
pft	-9125
pih	-9126
piy	-9127
pjn	-9128
pjq	-9129
pmm	-9130
ppd	-9131
ppo	-9132
pry	-9133
pwv	-9134
pze	-9135
pzf	-9136
pzq	-9137
qaq	-9138
qil	-9139
qjq	-9140
qnx	-9141
qrd	-9142
qtq	-9143
qtu	-9144
qwl	-9145
srj	-9146
tbu	-9147
tbx	-9148
tdx	-9149
tik	-9150
tin	-9151
tnx	-9152
ttd	-9153
uan	-9154
ubu	-9155
ucx	-9156
urk	-9157
vfd	-9158
vlq	-9159
vnu	-9160
vou	-9161
vtu	-9162
vyc	-9163
wao	-9164
wfv	-9165
wia	-9166
wjb	-9167
wjf	-9168
wjh	-9169
wrf	-9170
wrj	-9171
wsa	-9172
wzw	-9173
xhq	-9174
xic	-9175
xmd	-9176
xux	-9177
xvx	-9178
xzl	-9179
ygk	-9180
yim	-9181
yip	-9182
ymy	-9183
yrz	-9184
ysp	-9185
yss	-9186
ysy	-9187
ywh	-9188
ywl	-9189
yyy	-9190
▁205	-9191
▁220	-9192
▁296	-9193
▁abj	-9194
▁akf	-9195
▁bim	-9196
▁bzz	-9197
▁cwz	-9198
▁eme	-9199
▁ere	-9200
▁fbe	-9201
▁gaz	-9202
▁gij	-9203
▁grm	-9204
▁gzm	-9205
▁hje	-9206
▁hsr	-9207
▁jme	-9208
▁jnz	-9209
▁ksa	-9210
▁lai	-9211
▁lam	-9212
▁lfz	-9213
▁liz	-9214
▁lsi	-9215
▁mei	-9216
▁mzm	-9217
▁nme	-9218
▁nwr	-9219
▁oep	-9220
▁pbi	-9221
▁prm	-9222
▁pzz	-9223
▁qbz	-9224
▁qjs	-9225
▁rze	-9226
▁rzz	-9227
▁sja	-9228
▁smj	-9229
▁srz	-9230
▁tam	-9231
▁tja	-9232
▁tre	-9233
▁ume	-9234
▁usi	-9235
▁uzr	-9236
▁vsz	-9237
▁vwz	-9238
▁wbj	-9239
▁wis	-9240
▁wvb	-9241
▁wye	-9242
▁wze	-9243
▁wzz	-9244
▁xae	-9245
▁xam	-9246
▁xfr	-9247
▁xfs	-9248
▁xfz	-9249
▁yjm	-9250
▁yri	-9251
▁yws	-9252
▁zei	-9253
▁zrm	-9254
▁zzz	-9255
▁1241	-9256
▁1257	-9257
▁1329	-9258
▁1385	-9259
▁1419	-9260
▁1420	-9261
▁1450	-9262
▁1454	-9263
▁1456	-9264
▁1465	-9265
▁1476	-9266
▁1485	-9267
▁1502	-9268
▁1540	-9269
▁1569	-9270
ajs	-9271
bao	-9272
bbh	-9273
bbp	-9274
bfc	-9275
bfp	-9276
bfv	-9277
bid	-9278
bmj	-9279
bmq	-9280
brj	-9281
bsa	-9282
bsl	-9283
bsp	-9284
bsz	-9285
chv	-9286
ckq	-9287
cno	-9288
crq	-9289
dil	-9290
dmx	-9291
dpk	-9292
dsk	-9293
dwx	-9294
dzd	-9295
faf	-9296
fgh	-9297
fmf	-9298
fmv	-9299
fmy	-9300
fpq	-9301
fsf	-9302
fsl	-9303
fwp	-9304
fza	-9305
gae	-9306
gag	-9307
gaj	-9308
gft	-9309
gma	-9310
grk	-9311
gru	-9312
gsa	-9313
gsk	-9314
gsu	-9315
gzh	-9316
gzj	-9317
hbl	-9318
hfl	-9319
hgq	-9320
hlh	-9321
hmh	-9322
hnv	-9323
hox	-9324
hru	-9325
hsq	-9326
hsv	-9327
htx	-9328
hvl	-9329
jis	-9330
jra	-9331
jrq	-9332
kdq	-9333
kid	-9334
kod	-9335
ktu	-9336
kuc	-9337
kux	-9338
kyi	-9339
kyq	-9340
loc	-9341
ltd	-9342
lvc	-9343
lvq	-9344
nju	-9345
nth	-9346
nyl	-9347
oax	-9348
ojc	-9349
onh	-9350
opo	-9351
orc	-9352
ovd	-9353
ovh	-9354
pac	-9355
pap	-9356
pex	-9357
pfu	-9358
pfw	-9359
pil	-9360
pim	-9361
pin	-9362
piu	-9363
pjs	-9364
pma	-9365
pmb	-9366
pmp	-9367
pms	-9368
pmt	-9369
psu	-9370
psw	-9371
pwg	-9372
qfh	-9373
qlk	-9374
qpt	-9375
sai	-9376
sma	-9377
sme	-9378
smr	-9379
ssw	-9380
ssy	-9381
tdu	-9382
tek	-9383
tfu	-9384
tjd	-9385
tpx	-9386
twd	-9387
uek	-9388
umc	-9389
vtl	-9390
vvl	-9391
wam	-9392
wav	-9393
way	-9394
wel	-9395
wem	-9396
wff	-9397
wid	-9398
wjc	-9399
wmb	-9400
www	-9401
wzr	-9402
xak	-9403
xsv	-9404
yap	-9405
yaw	-9406
yaz	-9407
ygl	-9408
yiz	-9409
yjg	-9410
yjj	-9411
yjv	-9412
yrc	-9413
yzj	-9414
▁206	-9415
▁221	-9416
▁312	-9417
▁aai	-9418
▁abe	-9419
▁ahz	-9420
▁aie	-9421
▁bee	-9422
▁bsi	-9423
▁cba	-9424
▁cjj	-9425
▁crm	-9426
▁csz	-9427
▁dez	-9428
▁dre	-9429
▁egz	-9430
▁ews	-9431
▁ezm	-9432
▁ezz	-9433
▁fcg	-9434
▁fee	-9435
▁frj	-9436
▁fwm	-9437
▁fzm	-9438
▁gae	-9439
▁gfi	-9440
▁gib	-9441
▁grj	-9442
▁hhj	-9443
▁hya	-9444
▁hzm	-9445
▁ies	-9446
▁ifz	-9447
▁ire	-9448
▁iwm	-9449
▁jde	-9450
▁jje	-9451
▁kri	-9452
▁krj	-9453
▁lba	-9454
▁lir	-9455
▁lja	-9456
▁lrm	-9457
▁mii	-9458
▁nas	-9459
▁nie	-9460
▁nze	-9461
▁oam	-9462
▁oge	-9463
▁osa	-9464
▁pim	-9465
▁pje	-9466
▁pzi	-9467
▁qam	-9468
▁ram	-9469
▁sus	-9470
▁tmi	-9471
▁uam	-9472
▁ujz	-9473
▁uwe	-9474
▁vjm	-9475
▁vsr	-9476
▁wrr	-9477
▁xbr	-9478
▁xee	-9479
▁xjm	-9480
▁xrm	-9481
▁xye	-9482
▁yze	-9483
▁zbj	-9484
▁zsr	-9485
▁1307	-9486
▁1313	-9487
▁1359	-9488
▁1372	-9489
▁1375	-9490
▁1414	-9491
▁1418	-9492
▁1428	-9493
▁1441	-9494
▁1467	-9495
▁1468	-9496
▁1504	-9497
▁1530	-9498
▁1547	-9499
▁1627	-9500
▁1641	-9501
bby	-9502
bfd	-9503
bfx	-9504
bia	-9505
bim	-9506
bir	-9507
bmi	-9508
brm	-9509
bsq	-9510
bsw	-9511
bwp	-9512
bwt	-9513
bww	-9514
cfv	-9515
chc	-9516
chx	-9517
cik	-9518
cll	-9519
ctx	-9520
dan	-9521
dip	-9522
dit	-9523
diu	-9524
dvv	-9525
fbq	-9526
feb	-9527
fet	-9528
few	-9529
fju	-9530
frp	-9531
frv	-9532
frw	-9533
fsd	-9534
fsq	-9535
fzf	-9536
fzj	-9537
gau	-9538
gbh	-9539
ged	-9540
ges	-9541
gia	-9542
gja	-9543
gme	-9544
gpq	-9545
grq	-9546
gsg	-9547
gyc	-9548
gye	-9549
gyv	-9550
gzg	-9551
hac	-9552
hno	-9553
hsx	-9554
hvu	-9555
hzx	-9556
iit	-9557
jig	-9558
jry	-9559
keo	-9560
kgh	-9561
kpa	-9562
kuq	-9563
loh	-9564
lsc	-9565
msp	-9566
nad	-9567
ndq	-9568
npt	-9569
ntl	-9570
nvk	-9571
onx	-9572
ooq	-9573
ovl	-9574
par	-9575
pbl	-9576
pej	-9577
pfl	-9578
pjb	-9579
pjg	-9580
pmn	-9581
ppc	-9582
pph	-9583
prw	-9584
psl	-9585
pst	-9586
pzu	-9587
src	-9588
tfl	-9589
tjq	-9590
upq	-9591
uvq	-9592
vdu	-9593
vev	-9594
vmu	-9595
vnt	-9596
vrk	-9597
vrt	-9598
vtk	-9599
vzx	-9600
waz	-9601
web	-9602
wfg	-9603
wra	-9604
wrw	-9605
wst	-9606
wwg	-9607
wyh	-9608
wzi	-9609
xex	-9610
xfn	-9611
xto	-9612
xyo	-9613
yas	-9614
yfd	-9615
ygv	-9616
yio	-9617
ysc	-9618
ysw	-9619
yww	-9620
yzt	-9621
▁310	-9622
▁aee	-9623
▁aja	-9624
▁amm	-9625
▁ayr	-9626
▁bbj	-9627
▁bja	-9628
▁bsa	-9629
▁buw	-9630
▁cya	-9631
▁dje	-9632
▁dze	-9633
▁fas	-9634
▁him	-9635
▁hjj	-9636
▁hpi	-9637
▁ijz	-9638
▁imz	-9639
▁jsa	-9640
▁kjs	-9641
▁kra	-9642
▁kre	-9643
▁kzm	-9644
▁lim	-9645
▁lme	-9646
▁lmj	-9647
▁mcj	-9648
▁mjz	-9649
▁msm	-9650
▁ofm	-9651
▁oza	-9652
▁pbr	-9653
▁pie	-9654
▁pmm	-9655
▁qfj	-9656
▁qjm	-9657
▁qzj	-9658
▁rja	-9659
▁rjm	-9660
▁sjz	-9661
▁swr	-9662
▁ufi	-9663
▁vis	-9664
▁vme	-9665
▁vmm	-9666
▁vsa	-9667
▁wjj	-9668
▁woz	-9669
▁xsz	-9670
▁yja	-9671
▁yym	-9672
▁zim	-9673
▁zyz	-9674
▁1291	-9675
▁1366	-9676
▁1458	-9677
▁1469	-9678
▁1473	-9679
▁1518	-9680
▁1542	-9681
▁1557	-9682
▁1567	-9683
▁1637	-9684
aiu	-9685
bak	-9686
bbc	-9687
bez	-9688
bfb	-9689
bie	-9690
brd	-9691
bsb	-9692
bsm	-9693
bwl	-9694
bwu	-9695
byt	-9696
bze	-9697
bzp	-9698
ctc	-9699
ctd	-9700
dax	-9701
feh	-9702
fib	-9703
fjg	-9704
fmz	-9705
frc	-9706
fss	-9707
fsv	-9708
fyt	-9709
gev	-9710
gfb	-9711
gih	-9712
gil	-9713
giw	-9714
giy	-9715
gmd	-9716
gmj	-9717
gmv	-9718
gpd	-9719
gpl	-9720
gsq	-9721
gwb	-9722
gwo	-9723
gyr	-9724
gzv	-9725
hdq	-9726
hkq	-9727
hlk	-9728
hpc	-9729
hvo	-9730
iiq	-9731
izr	-9732
jfn	-9733
jiw	-9734
kfd	-9735
lgn	-9736
llc	-9737
llu	-9738
msv	-9739
nkx	-9740
nno	-9741
nnq	-9742
ntd	-9743
ntu	-9744
pak	-9745
pef	-9746
per	-9747
pfp	-9748
pid	-9749
pij	-9750
pja	-9751
pji	-9752
pjm	-9753
pjz	-9754
ppq	-9755
pra	-9756
prq	-9757
pwt	-9758
pzj	-9759
qlv	-9760
rag	-9761
rrg	-9762
sjw	-9763
tal	-9764
tfh	-9765
tnu	-9766
ttc	-9767
ttn	-9768
vnd	-9769
vox	-9770
vvk	-9771
wap	-9772
wbv	-9773
wet	-9774
wjn	-9775
wjr	-9776
wjs	-9777
wme	-9778
wpd	-9779
wwb	-9780
wwy	-9781
xel	-9782
xkq	-9783
xrk	-9784
xru	-9785
yeh	-9786
yem	-9787
yff	-9788
yfu	-9789
yik	-9790
yjp	-9791
yjq	-9792
ymd	-9793
ymi	-9794
ypq	-9795
yre	-9796
yrn	-9797
ywp	-9798
yzm	-9799
▁200	-9800
▁301	-9801
▁aim	-9802
▁bam	-9803
▁bmm	-9804
▁cge	-9805
▁cgm	-9806
▁cje	-9807
▁cmz	-9808
▁csi	-9809
▁daz	-9810
▁dfi	-9811
▁dwm	-9812
▁dzz	-9813
▁esr	-9814
▁ezi	-9815
▁fpe	-9816
▁fps	-9817
▁fsa	-9818
▁gar	-9819
▁gff	-9820
▁gje	-9821
▁hjf	-9822
▁iaz	-9823
▁ibi	-9824
▁iie	-9825
▁ime	-9826
▁jaz	-9827
▁jsz	-9828
▁jzb	-9829
▁kmm	-9830
▁las	-9831
▁lre	-9832
▁mfa	-9833
▁njr	-9834
▁nse	-9835
▁oae	-9836
▁ocy	-9837
▁olb	-9838
▁osj	-9839
▁oze	-9840
▁pwm	-9841
▁qyz	-9842
▁rba	-9843
▁rjs	-9844
▁rme	-9845
▁rre	-9846
▁rwz	-9847
▁rya	-9848
▁sbi	-9849
▁slz	-9850
▁smm	-9851
▁smz	-9852
▁taa	-9853
▁tme	-9854
▁tzj	-9855
▁ube	-9856
▁uim	-9857
▁vdp	-9858
▁vgj	-9859
▁vpa	-9860
▁vws	-9861
▁wae	-9862
▁wgj	-9863
▁wim	-9864
▁wja	-9865
▁wsi	-9866
▁yaa	-9867
▁ysm	-9868
▁zia	-9869
▁1308	-9870
▁1361	-9871
▁1421	-9872
▁1425	-9873
▁1444	-9874
▁1445	-9875
▁1477	-9876
▁1478	-9877
▁1482	-9878
▁1484	-9879
▁1490	-9880
▁1509	-9881
▁1538	-9882
▁1541	-9883
▁1558	-9884
▁1586	-9885
▁1591	-9886
aij	-9887
baf	-9888
bax	-9889
bbo	-9890
bib	-9891
bjp	-9892
bmd	-9893
bmv	-9894
bpg	-9895
brk	-9896
brn	-9897
bsh	-9898
bzn	-9899
ccq	-9900
cgl	-9901
ckc	-9902
crg	-9903
dtl	-9904
feg	-9905
fen	-9906
fep	-9907
fey	-9908
fiv	-9909
frn	-9910
fsa	-9911
fsc	-9912
fsu	-9913
fze	-9914
fzp	-9915
gaa	-9916
gab	-9917
gap	-9918
gbc	-9919
ggh	-9920
gis	-9921
gmt	-9922
gpk	-9923
gsr	-9924
gww	-9925
gwx	-9926
gza	-9927
gzu	-9928
hhx	-9929
hlx	-9930
hvd	-9931
hwl	-9932
hzl	-9933
iid	-9934
jmp	-9935
kjl	-9936
kwt	-9937
lev	-9938
lth	-9939
msg	-9940
nlx	-9941
nnv	-9942
odu	-9943
olh	-9944
omx	-9945
ood	-9946
pev	-9947
pjo	-9948
pjt	-9949
pmh	-9950
ppb	-9951
prc	-9952
pyl	-9953
pyt	-9954
qcd	-9955
qrh	-9956
rij	-9957
rrb	-9958
sfl	-9959
smu	-9960
ssp	-9961
swq	-9962
tvo	-9963
uyk	-9964
vbc	-9965
vnk	-9966
voq	-9967
vvd	-9968
wag	-9969
wak	-9970
wef	-9971
weq	-9972
wew	-9973
wfh	-9974
wfk	-9975
wfu	-9976
wig	-9977
wjw	-9978
wjy	-9979
wsg	-9980
wyt	-9981
wzm	-9982
yat	-9983
ybv	-9984
yeg	-9985
yex	-9986
yic	-9987
yiv	-9988
yjh	-9989
ypv	-9990
yyc	-9991
yyu	-9992
yyv	-9993
yzi	-9994
▁203	-9995
▁302	-9996
▁aez	-9997
▁ajz	-9998
▁ame	-9999
▁aws	-10000
▁bae	-10001
▁bgj	-10002
▁bje	-10003
▁bme	-10004
▁bmi	-10005
▁cbb	-10006
▁cen	-10007
▁cie	-10008
▁cre	-10009
▁cuf	-10010
▁cxi	-10011
▁dea	-10012
▁dlg	-10013
▁dmi	-10014
▁eaz	-10015
▁edj	-10016
▁ewm	-10017
▁fie	-10018
▁fmz	-10019
▁fya	-10020
▁fyz	-10021
▁gfa	-10022
▁gsi	-10023
▁gyz	-10024
▁hbm	-10025
▁hrf	-10026
▁iam	-10027
▁igj	-10028
▁iis	-10029
▁iow	-10030
▁irj	-10031
▁jgj	-10032
▁jkg	-10033
▁jpa	-10034
▁jre	-10035
▁jzg	-10036
▁jzi	-10037
▁kei	-10038
▁kji	-10039
▁lez	-10040
▁lsa	-10041
▁lue	-10042
▁lza	-10043
▁lzz	-10044
▁mjr	-10045
▁nia	-10046
▁nmj	-10047
▁npf	-10048
▁nzi	-10049
▁oaj	-10050
▁oje	-10051
▁osy	-10052
▁ozm	-10053
▁pci	-10054
▁pes	-10055
▁pgi	-10056
▁pis	-10057
▁prj	-10058
▁psi	-10059
▁qbe	-10060
▁qii	-10061
▁qlw	-10062
▁qxa	-10063
▁rdf	-10064
▁rfg	-10065
▁rwi	-10066
▁sfm	-10067
▁sva	-10068
▁uae	-10069
▁uri	-10070
▁uzz	-10071
▁vaj	-10072
▁viz	-10073
▁wei	-10074
▁wjz	-10075
▁wmm	-10076
▁wrs	-10077
▁xwz	-10078
▁yer	-10079
▁yme	-10080
▁ysj	-10081
▁ysz	-10082
▁zae	-10083
▁zmj	-10084
▁zmm	-10085
▁zwm	-10086
▁zyr	-10087
▁1354	-10088
▁1405	-10089
▁1408	-10090
▁1432	-10091
▁1451	-10092
▁1455	-10093
▁1461	-10094
▁1463	-10095
▁1488	-10096
▁1491	-10097
▁1494	-10098
▁1506	-10099
▁1514	-10100
▁1533	-10101
▁1543	-10102
▁1577	-10103
▁1596	-10104
▁1617	-10105
▁1618	-10106
ais	-10107
asp	-10108
bas	-10109
bav	-10110
bbx	-10111
biw	-10112
bjj	-10113
bjm	-10114
bjv	-10115
bmf	-10116
bph	-10117
bpt	-10118
brg	-10119
brx	-10120
bry	-10121
brz	-10122
bwb	-10123
bwc	-10124
bwx	-10125
bzc	-10126
bzd	-10127
cic	-10128
fam	-10129
fbx	-10130
fej	-10131
fem	-10132
fev	-10133
fjv	-10134
fjx	-10135
fjz	-10136
fmr	-10137
fsh	-10138
fwq	-10139
fyo	-10140
fzd	-10141
fzy	-10142
gai	-10143
gan	-10144
gfg	-10145
gfp	-10146
ggc	-10147
gmf	-10148
gmp	-10149
gmq	-10150
gsd	-10151
gso	-10152
gwu	-10153
gzd	-10154
hcx	-10155
hnx	-10156
htd	-10157
hvv	-10158
izj	-10159
jjp	-10160
jmy	-10161
jri	-10162
jrn	-10163
jso	-10164
khh	-10165
klu	-10166
lox	-10167
lvh	-10168
mso	-10169
ndc	-10170
noc	-10171
noh	-10172
nvd	-10173
nvo	-10174
nyn	-10175
olk	-10176
ooc	-10177
otu	-10178
otv	-10179
pbv	-10180
pes	-10181
pgx	-10182
piq	-10183
pmk	-10184
pmy	-10185
ppt	-10186
ppv	-10187
ppy	-10188
prb	-10189
prh	-10190
prp	-10191
pwc	-10192
pwh	-10193
pzr	-10194
pzt	-10195
rbv	-10196
rsn	-10197
sgl	-10198
sri	-10199
srs	-10200
tlu	-10201
tlx	-10202
tok	-10203
tto	-10204
tvc	-10205
tvq	-10206
uab	-10207
uwd	-10208
wed	-10209
weh	-10210
wfo	-10211
wjd	-10212
wpq	-10213
wrl	-10214
wyv	-10215
wzj	-10216
xjo	-10217
yab	-10218
yeq	-10219
yfh	-10220
yir	-10221
yis	-10222
yjf	-10223
ymk	-10224
ypt	-10225
ypx	-10226
yrr	-10227
yyg	-10228
yyl	-10229
zsv	-10230
▁202	-10231
▁215	-10232
▁218	-10233
▁aaj	-10234
▁aei	-10235
▁amr	-10236
▁baz	-10237
▁biz	-10238
▁bmz	-10239
▁bpw	-10240
▁buf	-10241
▁bwg	-10242
▁bxf	-10243
▁che	-10244
▁cqy	-10245
▁czz	-10246
▁dja	-10247
▁dmj	-10248
▁dxp	-10249
▁dye	-10250
▁dza	-10251
▁edg	-10252
▁efi	-10253
▁ejr	-10254
▁emi	-10255
▁eos	-10256
▁eqm	-10257
▁esi	-10258
▁fae	-10259
▁fjz	-10260
▁fmj	-10261
▁gfp	-10262
▁gkj	-10263
▁gzi	-10264
▁hbe	-10265
▁hpa	-10266
▁hse	-10267
▁hsz	-10268
▁hwi	-10269
▁icm	-10270
▁iee	-10271
▁itp	-10272
▁iya	-10273
▁jfi	-10274
▁jmb	-10275
▁jny	-10276
▁jtj	-10277
▁kds	-10278
▁kfi	-10279
▁kja	-10280
▁kjy	-10281
▁kzp	-10282
▁lbe	-10283
▁lea	-10284
▁les	-10285
▁lis	-10286
▁ljm	-10287
▁lmr	-10288
▁lpe	-10289
▁lrr	-10290
▁lym	-10291
▁mmi	-10292
▁mnz	-10293
▁mre	-10294
▁mry	-10295
▁mva	-10296
▁mze	-10297
▁nae	-10298
▁nbz	-10299
▁npa	-10300
▁nsi	-10301
▁nsm	-10302
▁nwm	-10303
▁nxi	-10304
▁oeb	-10305
▁oei	-10306
▁ogj	-10307
▁oim	-10308
▁olm	-10309
▁omz	-10310
▁oqw	-10311
▁pai	-10312
▁pfa	-10313
▁pfm	-10314
▁pmz	-10315
▁pob	-10316
▁psz	-10317
▁pwg	-10318
▁qda	-10319
▁qff	-10320
▁qje	-10321
▁qjz	-10322
▁qmi	-10323
▁qrm	-10324
▁qza	-10325
▁rje	-10326
▁rjr	-10327
▁rzr	-10328
▁saa	-10329
▁see	-10330
▁sfi	-10331
▁sfr	-10332
▁siz	-10333
▁smi	-10334
▁tdg	-10335
▁tfm	-10336
▁trm	-10337
▁trz	-10338
▁tsi	-10339
▁tze	-10340
▁tzi	-10341
▁ubi	-10342
▁ugr	-10343
▁ujj	-10344
▁umi	-10345
▁urz	-10346
▁usa	-10347
▁utf	-10348
▁vaz	-10349
▁vmr	-10350
▁vpg	-10351
▁vre	-10352
▁vyw	-10353
▁wbm	-10354
▁wos	-10355
▁wpi	-10356
▁xaj	-10357
▁xie	-10358
▁xpa	-10359
▁xze	-10360
▁xzm	-10361
▁yaj	-10362
▁ymm	-10363
▁yre	-10364
▁zaz	-10365
▁zhm	-10366
▁zzj	-10367
▁1404	-10368
▁1423	-10369
▁1460	-10370
▁1493	-10371
▁1512	-10372
▁1524	-10373
▁1559	-10374
▁1562	-10375
▁1573	-10376
▁1634	-10377
▁1642	-10378
afu	-10379
air	-10380
bbn	-10381
bej	-10382
bev	-10383
bje	-10384
bpq	-10385
bpy	-10386
brr	-10387
bru	-10388
bsd	-10389
bsk	-10390
bsn	-10391
bwn	-10392
cdc	-10393
fad	-10394
fbg	-10395
fed	-10396
ffq	-10397
fjl	-10398
fsg	-10399
fwn	-10400
fyx	-10401
fzs	-10402
gbq	-10403
gfl	-10404
gfv	-10405
ggq	-10406
ggu	-10407
gin	-10408
gjz	-10409
gpc	-10410
gpo	-10411
grv	-10412
gsn	-10413
gzo	-10414
gzp	-10415
heo	-10416
hnl	-10417
hvh	-10418
iin	-10419
iiw	-10420
iix	-10421
lnq	-10422
lpx	-10423
ltk	-10424
ltx	-10425
lvl	-10426
ndu	-10427
nkc	-10428
nlu	-10429
ogt	-10430
pab	-10431
pfg	-10432
pfn	-10433
pgv	-10434
pjd	-10435
pjf	-10436
prv	-10437
pzm	-10438
pzn	-10439
pzs	-10440
sjv	-10441
tah	-10442
tiu	-10443
tlq	-10444
tnc	-10445
tnd	-10446
tox	-10447
ttk	-10448
tyv	-10449
uzk	-10450
vdc	-10451
vdq	-10452
vok	-10453
vvx	-10454
wah	-10455
wjg	-10456
wjl	-10457
wmj	-10458
wpn	-10459
wwp	-10460
wwx	-10461
wyu	-10462
wza	-10463
wzc	-10464
xax	-10465
ybg	-10466
ybn	-10467
yfo	-10468
ygo	-10469
yid	-10470
yif	-10471
yjm	-10472
yju	-10473
yml	-10474
ypd	-10475
ypg	-10476
yrd	-10477
yrf	-10478
yrl	-10479
yrs	-10480
ysa	-10481
ysl	-10482
▁acs	-10483
▁ajm	-10484
▁aqg	-10485
▁awm	-10486
▁azm	-10487
▁azp	-10488
▁bcb	-10489
▁bes	-10490
▁bji	-10491
▁bjm	-10492
▁bwm	-10493
▁caa	-10494
▁caj	-10495
▁cna	-10496
▁cng	-10497
▁crj	-10498
▁daa	-10499
▁dab	-10500
▁dam	-10501
▁dei	-10502
▁dfr	-10503
▁dfw	-10504
▁dpb	-10505
▁dqy	-10506
▁dya	-10507
▁dzj	-10508
▁eam	-10509
▁eie	-10510
▁eir	-10511
▁ene	-10512
▁era	-10513
▁eri	-10514
▁fea	-10515
▁fnr	-10516
▁fri	-10517
▁fty	-10518
▁fvf	-10519
▁fxy	-10520
▁gvy	-10521
▁gzy	-10522
▁hfa	-10523
▁hmr	-10524
▁hra	-10525
▁hrj	-10526
▁iae	-10527
▁iem	-10528
▁jie	-10529
▁jig	-10530
▁jiz	-10531
▁jkf	-10532
▁jrz	-10533
▁jts	-10534
▁jym	-10535
▁jza	-10536
▁kaz	-10537
▁kiz	-10538
▁kjm	-10539
▁lbj	-10540
▁lee	-10541
▁lma	-10542
▁lwi	-10543
▁maj	-10544
▁mfr	-10545
▁mrr	-10546
▁msi	-10547
▁mwz	-10548
▁mzr	-10549
▁nei	-10550
▁nej	-10551
▁ner	-10552
▁nge	-10553
▁nis	-10554
▁nrm	-10555
▁nue	-10556
▁nus	-10557
▁nws	-10558
▁nxa	-10559
▁ome	-10560
▁omm	-10561
▁oqb	-10562
▁osm	-10563
▁ovw	-10564
▁oxb	-10565
▁oye	-10566
▁pcm	-10567
▁pia	-10568
▁pke	-10569
▁pme	-10570
▁pre	-10571
▁pri	-10572
▁pwz	-10573
▁pyz	-10574
▁pzm	-10575
▁qkr	-10576
▁qrf	-10577
▁qrz	-10578
▁qsz	-10579
▁rhp	-10580
▁rib	-10581
▁rpa	-10582
▁rrj	-10583
▁rws	-10584
▁sez	-10585
▁sji	-10586
▁snb	-10587
▁sng	-10588
▁srm	-10589
▁svi	-10590
▁swa	-10591
▁tbi	-10592
▁tge	-10593
▁uaa	-10594
▁ucy	-10595
▁uea	-10596
▁uez	-10597
▁uga	-10598
▁ulf	-10599
▁umz	-10600
▁vam	-10601
▁vii	-10602
▁vje	-10603
▁vjj	-10604
▁vmj	-10605
▁vrr	-10606
▁vtm	-10607
▁vvz	-10608
▁vzm	-10609
▁vzs	-10610
▁was	-10611
▁wez	-10612
▁wnp	-10613
▁wzi	-10614
▁xme	-10615
▁xsa	-10616
▁yae	-10617
▁yaz	-10618
▁yie	-10619
▁yjb	-10620
▁yjp	-10621
▁ymi	-10622
▁yqy	-10623
▁ysa	-10624
▁yzi	-10625
▁zgr	-10626
▁zmz	-10627
▁zsm	-10628
▁ztb	-10629
▁zzm	-10630
▁zzr	-10631
▁1452	-10632
▁1474	-10633
▁1499	-10634
▁1521	-10635
▁1537	-10636
▁1619	-10637
▁1667	-10638
▁1675	-10639
▁1680	-10640
ayn	-10641
bap	-10642
bat	-10643
bay	-10644
bbb	-10645
bbd	-10646
bef	-10647
bfn	-10648
bfq	-10649
bil	-10650
bit	-10651
biy	-10652
bma	-10653
bpl	-10654
brl	-10655
brv	-10656
bwy	-10657
bzh	-10658
bzk	-10659
bzq	-10660
bzv	-10661
bzx	-10662
dbh	-10663
ebl	-10664
fbd	-10665
ffd	-10666
fiy	-10667
fjd	-10668
fmo	-10669
fmt	-10670
frb	-10671
fsb	-10672
fzc	-10673
fzn	-10674
fzr	-10675
fzt	-10676
fzz	-10677
gbp	-10678
gfn	-10679
ggg	-10680
ggt	-10681
git	-10682
giu	-10683
gjy	-10684
gpt	-10685
gpu	-10686
gwq	-10687
gyo	-10688
gyp	-10689
hhk	-10690
hnc	-10691
htu	-10692
htv	-10693
ibc	-10694
iij	-10695
iiz	-10696
ipl	-10697
ldu	-10698
lmq	-10699
lok	-10700
lvx	-10701
mbk	-10702
mbl	-10703
mzq	-10704
nnx	-10705
ntq	-10706
nvh	-10707
pew	-10708
pfo	-10709
pik	-10710
pju	-10711
ppw	-10712
prl	-10713
pzy	-10714
qzq	-10715
rsb	-10716
sjb	-10717
sjy	-10718
tdq	-10719
tth	-10720
tvd	-10721
tvh	-10722
uiu	-10723
uku	-10724
uyu	-10725
waq	-10726
wau	-10727
wbg	-10728
weu	-10729
wfx	-10730
wpg	-10731
wzl	-10732
yav	-10733
yey	-10734
yfl	-10735
ymj	-10736
ymv	-10737
ypc	-10738
ypk	-10739
ypl	-10740
yro	-10741
ysj	-10742
ysr	-10743
ywv	-10744
ywx	-10745
▁agr	-10746
▁air	-10747
▁ais	-10748
▁anz	-10749
▁azi	-10750
▁bcj	-10751
▁bew	-10752
▁boj	-10753
▁ckf	-10754
▁cps	-10755
▁crz	-10756
▁cvf	-10757
▁cwe	-10758
▁cym	-10759
▁der	-10760
▁dnb	-10761
▁dsi	-10762
▁eae	-10763
▁edi	-10764
▁ela	-10765
▁emm	-10766
▁euf	-10767
▁euw	-10768
▁fbj	-10769
▁ffw	-10770
▁fhe	-10771
▁fjm	-10772
▁fmr	-10773
▁fns	-10774
▁fom	-10775
▁foz	-10776
▁fsm	-10777
▁gbj	-10778
▁gei	-10779
▁gew	-10780
▁ghy	-10781
▁gip	-10782
▁giy	-10783
▁gri	-10784
▁gte	-10785
▁gtf	-10786
▁gwm	-10787
▁hbj	-10788
▁hdy	-10789
▁hez	-10790
▁hfj	-10791
▁hfp	-10792
▁hha	-10793
▁hji	-10794
▁hrz	-10795
▁htp	-10796
▁huf	-10797
▁hwr	-10798
▁imr	-10799
▁iye	-10800
▁iyw	-10801
▁jcw	-10802
▁jer	-10803
▁jey	-10804
▁jji	-10805
▁jjm	-10806
▁jma	-10807
▁jqb	-10808
▁jse	-10809
▁jwi	-10810
▁jye	-10811
▁kfa	-10812
▁kge	-10813
▁kjr	-10814
▁kjz	-10815
▁kzz	-10816
▁laa	-10817
▁lae	-10818
▁lei	-10819
▁lgr	-10820
▁lie	-10821
▁lrj	-10822
▁lzm	-10823
▁mae	-10824
▁mbj	-10825
▁mee	-10826
▁mim	-10827
▁mpa	-10828
▁mqw	-10829
▁mri	-10830
▁mti	-10831
▁mzs	-10832
▁nai	-10833
▁njg	-10834
▁nly	-10835
▁nmf	-10836
▁nmm	-10837
▁nrz	-10838
▁nvz	-10839
▁oai	-10840
▁obg	-10841
▁oes	-10842
▁ofg	-10843
▁owa	-10844
▁owi	-10845
▁par	-10846
▁pea	-10847
▁prr	-10848
▁qfr	-10849
▁qna	-10850
▁qqg	-10851
▁rae	-10852
▁raz	-10853
▁riz	-10854
▁rkf	-10855
▁rrr	-10856
▁sdp	-10857
▁sgs	-10858
▁sjw	-10859
▁slj	-10860
▁sly	-10861
▁smr	-10862
▁sni	-10863
▁sqs	-10864
▁tai	-10865
▁tgs	-10866
▁twr	-10867
▁tzp	-10868
▁uda	-10869
▁ues	-10870
▁uge	-10871
▁uma	-10872
▁urm	-10873
▁usm	-10874
▁uzi	-10875
▁uzm	-10876
▁vfi	-10877
▁vie	-10878
▁vne	-10879
▁vya	-10880
▁vze	-10881
▁vzi	-10882
▁waa	-10883
▁wai	-10884
▁wie	-10885
▁wke	-10886
▁wmi	-10887
▁wpa	-10888
▁wtj	-10889
▁wub	-10890
▁wvy	-10891
▁xge	-10892
▁xjr	-10893
▁xjs	-10894
▁xjz	-10895
▁xmr	-10896
▁xnj	-10897
▁xra	-10898
▁xre	-10899
▁xrz	-10900
▁ydr	-10901
▁yhe	-10902
▁yob	-10903
▁yof	-10904
▁yuz	-10905
▁yzm	-10906
▁yzs	-10907
▁zcf	-10908
▁ziz	-10909
▁zje	-10910
▁znw	-10911
▁zte	-10912
▁ztf	-10913
▁zws	-10914
▁zwz	-10915
▁1371	-10916
▁1379	-10917
▁1397	-10918
▁1400	-10919
▁1440	-10920
▁1447	-10921
▁1459	-10922
▁1481	-10923
▁1497	-10924
▁1505	-10925
▁1508	-10926
▁1526	-10927
▁1529	-10928
▁1536	-10929
▁1544	-10930
▁1551	-10931
▁1563	-10932
▁1575	-10933
▁1587	-10934
▁1605	-10935
▁1694	-10936
awv	-10937
bah	-10938
bbl	-10939
bbq	-10940
bbv	-10941
beb	-10942
beq	-10943
bes	-10944
bin	-10945
bmc	-10946
bmn	-10947
byo	-10948
byv	-10949
bzu	-10950
bzz	-10951
dln	-10952
fal	-10953
fbo	-10954
fbt	-10955
feo	-10956
ffh	-10957
fgt	-10958
fjt	-10959
fsk	-10960
fsw	-10961
fwv	-10962
fzg	-10963
fzh	-10964
fzk	-10965
fzo	-10966
gac	-10967
gas	-10968
gec	-10969
gek	-10970
gfo	-10971
ggl	-10972
ggv	-10973
gid	-10974
gip	-10975
gje	-10976
gjg	-10977
gjm	-10978
gjn	-10979
gjv	-10980
gmc	-10981
gmr	-10982
gmx	-10983
gpv	-10984
gwt	-10985
gyt	-10986
gzn	-10987
gzw	-10988
ijp	-10989
jpq	-10990
kdx	-10991
ltn	-10992
ltq	-10993
mzj	-10994
nil	-10995
nrd	-10996
ntc	-10997
nto	-10998
nvc	-10999
olx	-11000
pec	-11001
pfk	-11002
pgo	-11003
pip	-11004
pmq	-11005
ppk	-11006
psx	-11007
rst	-11008
sab	-11009
sjp	-11010
syq	-11011
szq	-11012
szr	-11013
tdc	-11014
tno	-11015
tnq	-11016
tvk	-11017
vvu	-11018
vwd	-11019
wan	-11020
wez	-11021
wfl	-11022
wgt	-11023
wjo	-11024
wmz	-11025
wpv	-11026
wwk	-11027
wyx	-11028
ybo	-11029
yfv	-11030
yjc	-11031
yjd	-11032
yjk	-11033
yrb	-11034
ysg	-11035
ysh	-11036
ysx	-11037
zab	-11038
zbv	-11039
▁aam	-11040
▁afm	-11041
▁anb	-11042
▁ang	-11043
▁aoe	-11044
▁bar	-11045
▁bhj	-11046
▁boi	-11047
▁bpg	-11048
▁bra	-11049
▁bri	-11050
▁bss	-11051
▁bvm	-11052
▁cay	-11053
▁cbe	-11054
▁cfa	-11055
▁cip	-11056
▁cir	-11057
▁clz	-11058
▁cmi	-11059
▁coy	-11060
▁cta	-11061
▁cyr	-11062
▁czr	-11063
▁dae	-11064
▁djr	-11065
▁doe	-11066
▁doz	-11067
▁drj	-11068
▁dts	-11069
▁dtw	-11070
▁dvf	-11071
▁dyz	-11072
▁ecp	-11073
▁ehp	-11074
▁eoi	-11075
▁eqw	-11076
▁err	-11077
▁esz	-11078
▁eua	-11079
▁ezg	-11080
▁fez	-11081
▁fjp	-11082
▁frm	-11083
▁fsi	-11084
▁fze	-11085
▁gai	-11086
▁gdb	-11087
▁gfm	-11088
▁ghp	-11089
▁gzs	-11090
▁hee	-11091
▁hes	-11092
▁hfi	-11093
▁hhe	-11094
▁hkf	-11095
▁hoy	-11096
▁hri	-11097
▁hzi	-11098
▁iai	-11099
▁iaj	-11100
▁ibj	-11101
▁iiz	-11102
▁imi	-11103
▁imj	-11104
▁iuz	-11105
▁jfa	-11106
▁jiy	-11107
▁jqm	-11108
▁jrm	-11109
▁jsm	-11110
▁jsw	-11111
▁jue	-11112
▁jzj	-11113
▁jzm	-11114
▁ksb	-11115
▁kss	-11116
▁kus	-11117
▁kzr	-11118
▁ljs	-11119
▁lmm	-11120
▁lsm	-11121
▁lvf	-11122
▁lxp	-11123
▁lzy	-11124
▁mar	-11125
▁meb	-11126
▁mfg	-11127
▁mhe	-11128
▁mhs	-11129
▁mka	-11130
▁mmm	-11131
▁mrm	-11132
▁naa	-11133
▁nam	-11134
▁ndp	-11135
▁nfa	-11136
▁njs	-11137
▁nwz	-11138
▁oer	-11139
▁ohf	-11140
▁oiy	-11141
▁ojj	-11142
▁ole	-11143
▁oni	-11144
▁oww	-11145
▁oxj	-11146
▁pgr	-11147
▁ppi	-11148
▁ppz	-11149
▁pup	-11150
▁pwr	-11151
▁pxp	-11152
▁pze	-11153
▁qer	-11154
▁qge	-11155
▁qir	-11156
▁qis	-11157
▁qmm	-11158
▁qmr	-11159
▁qos	-11160
▁qpj	-11161
▁qra	-11162
▁qye	-11163
▁qzi	-11164
▁rbj	-11165
▁ruz	-11166
▁rxe	-11167
▁ryr	-11168
▁sab	-11169
▁sar	-11170
▁sde	-11171
▁sea	-11172
▁shs	-11173
▁spm	-11174
▁srr	-11175
▁swm	-11176
▁thf	-11177
▁tim	-11178
▁tli	-11179
▁tue	-11180
▁tzs	-11181
▁ucw	-11182
▁udi	-11183
▁udp	-11184
▁udy	-11185
▁ufa	-11186
▁uof	-11187
▁uqs	-11188
▁uyz	-11189
▁uzg	-11190
▁vhy	-11191
▁viw	-11192
▁vmz	-11193
▁vop	-11194
▁vpr	-11195
▁vqj	-11196
▁vtp	-11197
▁vym	-11198
▁vzz	-11199
▁wcs	-11200
▁wdi	-11201
▁wia	-11202
▁wif	-11203
▁wjm	-11204
▁wme	-11205
▁wnb	-11206
▁wng	-11207
▁wzm	-11208
▁xbj	-11209
▁xja	-11210
▁xkp	-11211
▁xni	-11212
▁xsm	-11213
▁xyi	-11214
▁ycj	-11215
▁yea	-11216
▁yej	-11217
▁yhw	-11218
▁ynb	-11219
▁yrj	-11220
▁ywz	-11221
▁yxe	-11222
▁yzb	-11223
▁zbr	-11224
▁zfr	-11225
▁zjr	-11226
▁zqg	-11227
▁zra	-11228
▁zse	-11229
▁zvp	-11230
▁zym	-11231
▁zza	-11232
▁zzi	-11233
▁1398	-11234
▁1472	-11235
▁1486	-11236
▁1513	-11237
▁1522	-11238
▁1528	-11239
▁1549	-11240
▁1566	-11241
▁1578	-11242
▁1610	-11243
▁1612	-11244
▁1635	-11245
▁1690	-11246
ago	-11247
asw	-11248
beg	-11249
beu	-11250
bex	-11251
bfk	-11252
bfo	-11253
bik	-11254
bio	-11255
biu	-11256
bmt	-11257
bpx	-11258
brc	-11259
brs	-11260
byn	-11261
bzl	-11262
diq	-11263
fbl	-11264
fby	-11265
feq	-11266
ffb	-11267
ffw	-11268
fgv	-11269
fgx	-11270
fiu	-11271
fpv	-11272
fpx	-11273
fpy	-11274
fwb	-11275
fwh	-11276
fyl	-11277
gbd	-11278
gbl	-11279
gbx	-11280
gio	-11281
gjc	-11282
gjt	-11283
gju	-11284
gmo	-11285
grp	-11286
gyq	-11287
gze	-11288
gzr	-11289
hgv	-11290
hou	-11291
huq	-11292
iic	-11293
iiv	-11294
jai	-11295
jem	-11296
jjj	-11297
jjl	-11298
llq	-11299
mbn	-11300
mbx	-11301
mwt	-11302
mwx	-11303
myu	-11304
nnc	-11305
nnl	-11306
nnu	-11307
ntx	-11308
paa	-11309
pbn	-11310
pby	-11311
pel	-11312
peo	-11313
pey	-11314
pfd	-11315
pfq	-11316
pjc	-11317
pjh	-11318
pjk	-11319
pjl	-11320
psz	-11321
pwn	-11322
pzg	-11323
rsf	-11324
sra	-11325
tnl	-11326
toc	-11327
toh	-11328
trx	-11329
ttu	-11330
ttx	-11331
vlc	-11332
vlh	-11333
vlu	-11334
vnx	-11335
voc	-11336
vzu	-11337
wac	-11338
wbl	-11339
wgn	-11340
wgo	-11341
wgv	-11342
wib	-11343
wij	-11344
wmh	-11345
wsj	-11346
wsp	-11347
wyk	-11348
ybh	-11349
ybl	-11350
yfc	-11351
ygd	-11352
ygh	-11353
yjx	-11354
ymw	-11355
ysn	-11356
yso	-11357
ywk	-11358
zjh	-11359
zpo	-11360
zwh	-11361
▁adb	-11362
▁afa	-11363
▁akm	-11364
▁arm	-11365
▁avr	-11366
▁awr	-11367
▁azj	-11368
▁bbr	-11369
▁bcr	-11370
▁bei	-11371
▁bfr	-11372
▁blp	-11373
▁bpz	-11374
▁bsr	-11375
▁bwe	-11376
▁bxj	-11377
▁bzi	-11378
▁bzr	-11379
▁caw	-11380
▁ciz	-11381
▁cjr	-11382
▁cky	-11383
▁cme	-11384
▁csm	-11385
▁cvb	-11386
▁czi	-11387
▁dee	-11388
▁dne	-11389
▁doj	-11390
▁dqp	-11391
▁dss	-11392
▁dtz	-11393
▁dws	-11394
▁ees	-11395
▁eoe	-11396
▁eya	-11397
▁faj	-11398
▁fei	-11399
▁fje	-11400
▁fjr	-11401
▁fkg	-11402
▁fli	-11403
▁frz	-11404
▁ftj	-11405
▁ftw	-11406
▁fwa	-11407
▁fza	-11408
▁fzz	-11409
▁gaw	-11410
▁gcf	-11411
▁gmf	-11412
▁gmm	-11413
▁gog	-11414
▁grg	-11415
▁gwr	-11416
▁gxb	-11417
▁gxw	-11418
▁gys	-11419
▁hat	-11420
▁hbw	-11421
▁hjz	-11422
▁hke	-11423
▁hmj	-11424
▁hoj	-11425
▁hsi	-11426
▁hup	-11427
▁hur	-11428
▁hwz	-11429
▁ibm	-11430
▁iep	-11431
▁ifa	-11432
▁ijp	-11433
▁ijr	-11434
▁inm	-11435
▁iqi	-11436
▁iri	-11437
▁iuj	-11438
▁iwa	-11439
▁iyr	-11440
▁izr	-11441
▁jam	-11442
▁jci	-11443
▁jcp	-11444
▁jcy	-11445
▁jhj	-11446
▁jja	-11447
▁jlb	-11448
▁jmj	-11449
▁jna	-11450
▁jqg	-11451
▁jrr	-11452
▁jtb	-11453
▁jte	-11454
▁jug	-11455
▁jyj	-11456
▁kar	-11457
▁kcz	-11458
▁kdg	-11459
▁kff	-11460
▁kie	-11461
▁kij	-11462
▁kmr	-11463
▁ksm	-11464
▁ktg	-11465
▁kxf	-11466
▁kyz	-11467
▁kzi	-11468
▁lcr	-11469
▁lcy	-11470
▁lfm	-11471
▁lpi	-11472
▁lri	-11473
▁lsy	-11474
▁maz	-11475
▁mdg	-11476
▁mhf	-11477
▁miz	-11478
▁mme	-11479
▁moa	-11480
▁mrj	-11481
▁mwe	-11482
▁myz	-11483
▁naj	-11484
▁nar	-11485
▁ncw	-11486
▁nee	-11487
▁niy	-11488
▁nnr	-11489
▁nqm	-11490
▁nrj	-11491
▁nzf	-11492
▁nzr	-11493
▁oee	-11494
▁ois	-11495
▁ojw	-11496
▁olr	-11497
▁ooa	-11498
▁opm	-11499
▁osz	-11500
▁oui	-11501
▁ouj	-11502
▁owm	-11503
▁oya	-11504
▁oyr	-11505
▁ozz	-11506
▁pep	-11507
▁pjm	-11508
▁pjr	-11509
▁pmi	-11510
▁pmp	-11511
▁pni	-11512
▁pps	-11513
▁pqf	-11514
▁pqp	-11515
▁pvm	-11516
▁pym	-11517
▁qaj	-11518
▁qbj	-11519
▁qof	-11520
▁qog	-11521
▁qqe	-11522
▁qqy	-11523
▁qtw	-11524
▁raa	-11525
▁rai	-11526
▁rdr	-11527
▁rgr	-11528
▁ria	-11529
▁rig	-11530
▁ris	-11531
▁rji	-11532
▁rla	-11533
▁rlr	-11534
▁rui	-11535
▁rvy	-11536
▁rwj	-11537
▁rzm	-11538
▁sai	-11539
▁ser	-11540
▁sgy	-11541
▁sib	-11542
▁sqa	-11543
▁swe	-11544
▁szm	-11545
▁tcj	-11546
▁tdm	-11547
▁tir	-11548
▁tjm	-11549
▁tmm	-11550
▁tne	-11551
▁trr	-11552
▁tsm	-11553
▁tta	-11554
▁uas	-11555
▁ucj	-11556
▁uds	-11557
▁uer	-11558
▁ugb	-11559
▁umm	-11560
▁uns	-11561
▁upi	-11562
▁upr	-11563
▁uqr	-11564
▁usr	-11565
▁uxm	-11566
▁uyr	-11567
▁uzs	-11568
▁vbr	-11569
▁vra	-11570
▁vtr	-11571
▁vxg	-11572
▁vzp	-11573
▁waf	-11574
▁waz	-11575
▁wdb	-11576
▁wde	-11577
▁wee	-11578
▁wnz	-11579
▁wri	-11580
▁wty	-11581
▁wws	-11582
▁wya	-11583
▁xaz	-11584
▁xjf	-11585
▁xlj	-11586
▁xlr	-11587
▁xlz	-11588
▁xmj	-11589
▁xos	-11590
▁xuj	-11591
▁xwm	-11592
▁xxa	-11593
▁xxi	-11594
▁xzr	-11595
▁ycs	-11596
▁yez	-11597
▁yjr	-11598
▁yng	-11599
▁yub	-11600
▁zes	-11601
▁zuw	-11602
▁zxs	-11603
▁zze	-11604
▁1388	-11605
▁1426	-11606
▁1475	-11607
▁1480	-11608
▁1515	-11609
▁1539	-11610
▁1554	-11611
▁1561	-11612
▁1565	-11613
▁1582	-11614
▁1590	-11615
▁1598	-11616
▁1607	-11617
▁1622	-11618
▁1646	-11619
▁1651	-11620
▁1655	-11621
▁1673	-11622
▁1716	-11623
ael	-11624
baw	-11625
bgc	-11626
bjd	-11627
bmk	-11628
bmw	-11629
bpv	-11630
bri	-11631
bsv	-11632
bsx	-11633
bwh	-11634
byq	-11635
bzi	-11636
fbk	-11637
ffo	-11638
fgk	-11639
fgn	-11640
fie	-11641
fif	-11642
fih	-11643
fjo	-11644
fma	-11645
fpu	-11646
fwc	-11647
fwu	-11648
fzi	-11649
fzv	-11650
gak	-11651
gao	-11652
gbk	-11653
gbu	-11654
gfd	-11655
gfu	-11656
gic	-11657
gif	-11658
gjl	-11659
gjo	-11660
gmk	-11661
gmz	-11662
grn	-11663
gsb	-11664
gsh	-11665
gst	-11666
gwh	-11667
gyu	-11668
gzc	-11669
hod	-11670
iih	-11671
iil	-11672
jiy	-11673
jjc	-11674
jjh	-11675
jjn	-11676
jrx	-11677
jsy	-11678
ltt	-11679
msc	-11680
msf	-11681
nkq	-11682
nlh	-11683
oyx	-11684
pan	-11685
paq	-11686
pbd	-11687
pbo	-11688
peq	-11689
pfv	-11690
pfy	-11691
pjp	-11692
pmr	-11693
ppl	-11694
ppu	-11695
psd	-11696
pyd	-11697
pyo	-11698
pzd	-11699
ras	-11700
ryd	-11701
sfq	-11702
sjh	-11703
tec	-11704
tkq	-11705
ttl	-11706
ttq	-11707
wbq	-11708
wfd	-11709
wfq	-11710
wgl	-11711
wgx	-11712
wix	-11713
wmf	-11714
wpo	-11715
wpt	-11716
wsf	-11717
wsv	-11718
wwn	-11719
wwu	-11720
yep	-11721
yia	-11722
yin	-11723
ypn	-11724
ysd	-11725
ywb	-11726
ywc	-11727
yyd	-11728
yyh	-11729
▁adr	-11730
▁aia	-11731
▁alp	-11732
▁amf	-11733
▁api	-11734
▁ari	-11735
▁ati	-11736
▁azy	-11737
▁baj	-11738
▁ber	-11739
▁bez	-11740
▁bmj	-11741
▁brw	-11742
▁bvw	-11743
▁bwz	-11744
▁bxe	-11745
▁bxr	-11746
▁bym	-11747
▁bys	-11748
▁bzb	-11749
▁cjm	-11750
▁ckb	-11751
▁clg	-11752
▁cmf	-11753
▁cne	-11754
▁cra	-11755
▁csa	-11756
▁csy	-11757
▁ctz	-11758
▁cuz	-11759
▁cxf	-11760
▁cyz	-11761
▁daf	-11762
▁ddb	-11763
▁ddy	-11764
▁dhe	-11765
▁dmm	-11766
▁due	-11767
▁dve	-11768
▁dwj	-11769
▁dzi	-11770
▁dzm	-11771
▁dzs	-11772
▁ecr	-11773
▁egm	-11774
▁ehf	-11775
▁eij	-11776
▁eis	-11777
▁ekr	-11778
▁elf	-11779
▁elm	-11780
▁eqb	-11781
▁erm	-11782
▁esm	-11783
▁eyz	-11784
▁fai	-11785
▁faz	-11786
▁fjs	-11787
▁fme	-11788
▁fti	-11789
▁fyr	-11790
▁fzs	-11791
▁gda	-11792
▁gej	-11793
▁gis	-11794
▁gja	-11795
▁gjm	-11796
▁gmj	-11797
▁gnp	-11798
▁gqw	-11799
▁grr	-11800
▁gry	-11801
▁gsr	-11802
▁gsz	-11803
▁gyi	-11804
▁gze	-11805
▁gzf	-11806
▁hib	-11807
▁hiz	-11808
▁hkg	-11809
▁hmm	-11810
▁hps	-11811
▁hqg	-11812
▁hrb	-11813
▁hsm	-11814
▁hvm	-11815
▁hxi	-11816
▁hyz	-11817
▁hzg	-11818
▁iab	-11819
▁idy	-11820
▁ifm	-11821
▁ikf	-11822
▁inw	-11823
▁iqs	-11824
▁itz	-11825
▁ivg	-11826
▁iwr	-11827
▁iws	-11828
▁iwz	-11829
▁izi	-11830
▁jab	-11831
▁jae	-11832
▁jds	-11833
▁jhm	-11834
▁jhr	-11835
▁jis	-11836
▁jle	-11837
▁jmr	-11838
▁jns	-11839
▁joa	-11840
▁jqz	-11841
▁jri	-11842
▁jss	-11843
▁jxe	-11844
▁ker	-11845
▁kes	-11846
▁kjp	-11847
▁kly	-11848
▁kme	-11849
▁kmg	-11850
▁knp	-11851
▁krr	-11852
▁ksr	-11853
▁kva	-11854
▁kve	-11855
▁kwr	-11856
▁kzb	-11857
▁kzs	-11858
▁lcp	-11859
▁ldm	-11860
▁lgy	-11861
▁ljp	-11862
▁ljr	-11863
▁lmi	-11864
▁lnw	-11865
▁lqg	-11866
▁lra	-11867
▁ltg	-11868
▁lwz	-11869
▁mhp	-11870
▁mja	-11871
▁mlg	-11872
▁mrp	-11873
▁mts	-11874
▁muz	-11875
▁mzb	-11876
▁naw	-11877
▁ndf	-11878
▁ndj	-11879
▁nqg	-11880
▁nqj	-11881
▁nsy	-11882
▁nzs	-11883
▁odb	-11884
▁ofa	-11885
▁oma	-11886
▁oor	-11887
▁oxr	-11888
▁pdj	-11889
▁piz	-11890
▁pji	-11891
▁pkw	-11892
▁plr	-11893
▁poj	-11894
▁ppa	-11895
▁pqm	-11896
▁psr	-11897
▁pum	-11898
▁pvb	-11899
▁pxw	-11900
▁pza	-11901
▁pzs	-11902
▁qai	-11903
▁qcb	-11904
▁qdg	-11905
▁qhs	-11906
▁qiy	-11907
▁qja	-11908
▁qkp	-11909
▁qre	-11910
▁qri	-11911
▁qrr	-11912
▁quy	-11913
▁qvi	-11914
▁qvw	-11915
▁qyr	-11916
▁qzm	-11917
▁rar	-11918
▁rca	-11919
▁rcj	-11920
▁rda	-11921
▁rfr	-11922
▁rim	-11923
▁rkw	-11924
▁rlf	-11925
▁rmi	-11926
▁rnm	-11927
▁rwe	-11928
▁sas	-11929
▁scr	-11930
▁ses	-11931
▁sle	-11932
▁soa	-11933
▁sqb	-11934
▁sri	-11935
▁taj	-11936
▁tcs	-11937
▁tcz	-11938
▁tfe	-11939
▁tiy	-11940
▁tkm	-11941
▁tqr	-11942
▁tss	-11943
▁tva	-11944
▁txf	-11945
▁tya	-11946
▁uar	-11947
▁uhy	-11948
▁uhz	-11949
▁uir	-11950
▁uis	-11951
▁uke	-11952
▁uow	-11953
▁ute	-11954
▁uua	-11955
▁uya	-11956
▁vaa	-11957
▁vai	-11958
▁vca	-11959
▁vja	-11960
▁vji	-11961
▁vjr	-11962
▁vmi	-11963
▁vom	-11964
▁vwi	-11965
▁vwj	-11966
▁vxy	-11967
▁wej	-11968
▁whr	-11969
▁wjy	-11970
▁wkr	-11971
▁wlj	-11972
▁wog	-11973
▁wow	-11974
▁wuf	-11975
▁xai	-11976
▁xao	-11977
▁xef	-11978
▁xij	-11979
▁xir	-11980
▁xnw	-11981
▁xoi	-11982
▁xsi	-11983
▁xvy	-11984
▁xyj	-11985
▁yam	-11986
▁yar	-11987
▁yhm	-11988
▁yhz	-11989
▁ylm	-11990
▁yns	-11991
▁yqg	-11992
▁yra	-11993
▁yys	-11994
▁yzp	-11995
▁yzy	-11996
▁zai	-11997
▁zaj	-11998
▁zam	-11999
▁zcp	-12000
▁zer	-12001
▁zfi	-12002
▁zhs	-12003
▁zns	-12004
▁zpr	-12005
▁zts	-12006
▁zuz	-12007
▁1435	-12008
▁1503	-12009
▁1511	-12010
▁1546	-12011
▁1552	-12012
▁1555	-12013
▁1600	-12014
▁1609	-12015
▁1611	-12016
▁1613	-12017
▁1630	-12018
▁1700	-12019
▁1753	-12020
ayv	-12021
bad	-12022
bbk	-12023
bec	-12024
ben	-12025
bet	-12026
bfl	-12027
bgo	-12028
bgu	-12029
bjz	-12030
bpc	-12031
brt	-12032
bss	-12033
byd	-12034
bzg	-12035
bzw	-12036
egt	-12037
fab	-12038
ffn	-12039
ffp	-12040
fgo	-12041
fgu	-12042
fjc	-12043
fph	-12044
frl	-12045
fry	-12046
fwy	-12047
fyv	-12048
gad	-12049
gat	-12050
gfq	-12051
ggn	-12052
giq	-12053
gjf	-12054
gji	-12055
gjp	-12056
gpn	-12057
grx	-12058
gsl	-12059
gsv	-12060
gyh	-12061
gzx	-12062
ibu	-12063
iez	-12064
iip	-12065
imf	-12066
jex	-12067
jgq	-12068
jjt	-12069
jzj	-12070
mao	-12071
mpk	-12072
mrh	-12073
myl	-12074
ndx	-12075
nlc	-12076
nnd	-12077
nox	-12078
odx	-12079
ooh	-12080
ooo	-12081
ovv	-12082
pff	-12083
pgl	-12084
pmg	-12085
pwk	-12086
rgo	-12087
rgt	-12088
rzv	-12089
sgo	-12090
sgv	-12091
sjt	-12092
srg	-12093
swk	-12094
szu	-12095
usc	-12096
vlx	-12097
voh	-12098
wbh	-12099
wft	-12100
wfw	-12101
win	-12102
wiu	-12103
wiv	-12104
wmq	-12105
wmv	-12106
wpk	-12107
wpx	-12108
wsn	-12109
wzv	-12110
ybq	-12111
yek	-12112
yew	-12113
ymu	-12114
ypy	-12115
ysq	-12116
▁ajs	-12117
▁alz	-12118
▁anj	-12119
▁aps	-12120
▁apz	-12121
▁aqb	-12122
▁aqf	-12123
▁aqz	-12124
▁arp	-12125
▁arr	-12126
▁avb	-12127
▁baf	-12128
▁bai	-12129
▁bcp	-12130
▁bdm	-12131
▁bef	-12132
▁bfa	-12133
▁bhr	-12134
▁bir	-12135
▁bkw	-12136
▁bqb	-12137
▁bre	-12138
▁brf	-12139
▁brp	-12140
▁bup	-12141
▁bxb	-12142
▁bxp	-12143
▁bya	-12144
▁bzm	-12145
▁bzy	-12146
▁caz	-12147
▁cbj	-12148
▁cim	-12149
▁cnj	-12150
▁cqs	-12151
▁cri	-12152
▁crs	-12153
▁cub	-12154
▁cxr	-12155
▁czg	-12156
▁czm	-12157
▁dbz	-12158
▁dcj	-12159
▁dda	-12160
▁ddj	-12161
▁dfj	-12162
▁dji	-12163
▁djs	-12164
▁dkp	-12165
▁dly	-12166
▁dmf	-12167
▁dmz	-12168
▁dra	-12169
▁dri	-12170
▁drr	-12171
▁dsa	-12172
▁dsj	-12173
▁dsp	-12174
▁dte	-12175
▁dtg	-12176
▁duw	-12177
▁edw	-12178
▁efy	-12179
▁ehz	-12180
▁eia	-12181
▁ejj	-12182
▁eka	-12183
▁eqe	-12184
▁erp	-12185
▁ess	-12186
▁eur	-12187
▁ewa	-12188
▁ewj	-12189
▁exw	-12190
▁fbi	-12191
▁fdb	-12192
▁fes	-12193
▁fey	-12194
▁fkz	-12195
▁fla	-12196
▁foy	-12197
▁fqi	-12198
▁ftp	-12199
▁fua	-12200
▁fxj	-12201
▁fyb	-12202
▁gaa	-12203
▁gaj	-12204
▁gam	-12205
▁ggi	-12206
▁gif	-12207
▁glb	-12208
▁gni	-12209
▁gtj	-12210
▁gug	-12211
▁gus	-12212
▁hbr	-12213
▁hea	-12214
▁heb	-12215
▁hey	-12216
▁hge	-12217
▁hmz	-12218
▁hnr	-12219
▁hoe	-12220
▁hpm	-12221
▁hqy	-12222
▁hrr	-12223
▁hty	-12224
▁hua	-12225
▁hxe	-12226
▁hxj	-12227
▁hxt	-12228
▁iar	-12229
▁idi	-12230
▁idr	-12231
▁ihg	-12232
▁ili	-12233
▁inb	-12234
▁ipa	-12235
▁iqm	-12236
▁iui	-12237
▁iup	-12238
▁ivm	-12239
▁ivs	-12240
▁iyz	-12241
▁jcs	-12242
▁jdw	-12243
▁jib	-12244
▁jim	-12245
▁jjr	-12246
▁jka	-12247
▁jkw	-12248
▁jlm	-12249
▁jms	-12250
▁joi	-12251
▁jqr	-12252
▁jqw	-12253
▁jwj	-12254
▁jxa	-12255
▁jxz	-12256
▁jzs	-12257
▁kaa	-12258
▁kas	-12259
▁kcb	-12260
▁kem	-12261
▁kfm	-12262
▁kii	-12263
▁kjg	-12264
▁kka	-12265
▁klb	-12266
▁klg	-12267
▁kmz	-12268
▁kps	-12269
▁ktb	-12270
▁kup	-12271
▁kvb	-12272
▁kvw	-12273
▁kvz	-12274
▁kwe	-12275
▁laj	-12276
▁ldp	-12277
▁ley	-12278
▁lhs	-12279
▁llb	-12280
▁llm	-12281
▁loy	-12282
▁lqe	-12283
▁lug	-12284
▁luj	-12285
▁lvz	-12286
▁lwr	-12287
▁mgm	-12288
▁mis	-12289
▁mji	-12290
▁mqz	-12291
▁mvj	-12292
▁mxg	-12293
▁myi	-12294
▁myj	-12295
▁ndn	-12296
▁nea	-12297
▁nfs	-12298
▁nlw	-12299
▁nmi	-12300
▁nnb	-12301
▁nnz	-12302
▁nqb	-12303
▁ntf	-12304
▁nxb	-12305
▁nxs	-12306
▁nya	-12307
▁nyr	-12308
▁nyz	-12309
▁nzg	-12310
▁nzj	-12311
▁obm	-12312
▁oea	-12313
▁ogz	-12314
▁oif	-12315
▁olw	-12316
▁onf	-12317
▁oqg	-12318
▁oqy	-12319
▁otm	-12320
▁ovi	-12321
▁ovp	-12322
▁owe	-12323
▁oxi	-12324
▁oyi	-12325
▁pas	-12326
▁pcb	-12327
▁pcy	-12328
▁pde	-12329
▁phg	-12330
▁plm	-12331
▁plw	-12332
▁pms	-12333
▁ptw	-12334
▁puy	-12335
▁qap	-12336
▁qaz	-12337
▁qej	-12338
▁qes	-12339
▁qew	-12340
▁qjb	-12341
▁qmj	-12342
▁qqz	-12343
▁qrj	-12344
▁qvp	-12345
▁qzz	-12346
▁ras	-12347
▁rge	-12348
▁rjp	-12349
▁rkm	-12350
▁rkp	-12351
▁rpj	-12352
▁rqi	-12353
▁rrm	-12354
▁ruf	-12355
▁rug	-12356
▁rxh	-12357
▁sba	-12358
▁sds	-12359
▁sdw	-12360
▁sdz	-12361
▁sig	-12362
▁sij	-12363
▁skm	-12364
▁slp	-12365
▁slr	-12366
▁sne	-12367
▁snm	-12368
▁snr	-12369
▁spz	-12370
▁sss	-12371
▁sxw	-12372
▁sxy	-12373
▁sza	-12374
▁tag	-12375
▁tdf	-12376
▁tie	-12377
▁tis	-12378
▁tiw	-12379
▁tiz	-12380
▁tjw	-12381
▁tkb	-12382
▁tpe	-12383
▁ttz	-12384
▁tug	-12385
▁tur	-12386
▁txe	-12387
▁tyr	-12388
▁uaj	-12389
▁uap	-12390
▁uca	-12391
▁ucf	-12392
▁ugp	-12393
▁ula	-12394
▁ulr	-12395
▁uqe	-12396
▁uwz	-12397
▁uxg	-12398
▁uxi	-12399
▁uxy	-12400
▁uxz	-12401
▁vas	-12402
▁vda	-12403
▁vfj	-12404
▁vfs	-12405
▁vhp	-12406
▁vls	-12407
▁vsf	-12408
▁vta	-12409
▁vup	-12410
▁vva	-12411
▁vvb	-12412
▁vza	-12413
▁wds	-12414
▁why	-12415
▁wlm	-12416
▁wma	-12417
▁wmp	-12418
▁wns	-12419
▁wse	-12420
▁wue	-12421
▁wum	-12422
▁wvw	-12423
▁xcb	-12424
▁xeg	-12425
▁xhs	-12426
▁xia	-12427
▁xkb	-12428
▁xkn	-12429
▁xma	-12430
▁xpr	-12431
▁xpw	-12432
▁xrb	-12433
▁xrg	-12434
▁xse	-12435
▁xug	-12436
▁ydz	-12437
▁yfs	-12438
▁yiw	-12439
▁yjs	-12440
▁yly	-12441
▁yni	-12442
▁yow	-12443
▁yqb	-12444
▁yqf	-12445
▁yss	-12446
▁yta	-12447
▁ytp	-12448
▁yvi	-12449
▁zbi	-12450
▁zcg	-12451
▁zdm	-12452
▁zem	-12453
▁zez	-12454
▁zhb	-12455
▁ziw	-12456
▁zkw	-12457
▁zky	-12458
▁zms	-12459
▁zne	-12460
▁zof	-12461
▁zqr	-12462
▁zry	-12463
▁zta	-12464
▁zuy	-12465
▁zxt	-12466
▁zxz	-12467
▁zzf	-12468
▁1387	-12469
▁1517	-12470
▁1564	-12471
▁1568	-12472
▁1580	-12473
▁1595	-12474
▁1604	-12475
▁1606	-12476
▁1620	-12477
▁1626	-12478
▁1653	-12479
▁1657	-12480
▁1661	-12481
▁1679	-12482
▁1692	-12483
▁1724	-12484
▁1741	-12485
aay	-12486
aeb	-12487
aip	-12488
ayo	-12489
ayu	-12490
ban	-12491
bea	-12492
beh	-12493
bek	-12494
beo	-12495
bep	-12496
bgd	-12497
bgq	-12498
bjx	-12499
bpk	-12500
bsc	-12501
fak	-12502
fbn	-12503
fbu	-12504
fia	-12505
fig	-12506
fiz	-12507
fmq	-12508
fpg	-12509
fpl	-12510
frk	-12511
fyc	-12512
fzq	-12513
geb	-12514
gjb	-12515
gph	-12516
gwd	-12517
gwy	-12518
jij	-12519
lkx	-12520
old	-12521
pae	-12522
pbg	-12523
pbp	-12524
pgh	-12525
pib	-12526
pit	-12527
pmo	-12528
ppf	-12529
prk	-12530
pyx	-12531
rsd	-12532
rsp	-12533
sis	-12534
sjo	-12535
srp	-12536
szt	-12537
tgu	-12538
tlc	-12539
toq	-12540
tou	-12541
tvl	-12542
was	-12543
waw	-12544
wbc	-12545
wiw	-12546
wmi	-12547
wmp	-12548
wsk	-12549
wwq	-12550
yef	-12551
yej	-12552
ygx	-12553
yix	-12554
ymq	-12555
yms	-12556
ypo	-12557
yrj	-12558
yzg	-12559
yzo	-12560
zfk	-12561
zpn	-12562
zwn	-12563
zwq	-12564
▁aaa	-12565
▁acy	-12566
▁adf	-12567
▁adp	-12568
▁afj	-12569
▁aii	-12570
▁akz	-12571
▁aof	-12572
▁ape	-12573
▁aqj	-12574
▁aqs	-12575
▁ara	-12576
▁arw	-12577
▁ary	-12578
▁asc	-12579
▁atm	-12580
▁atw	-12581
▁aua	-12582
▁aug	-12583
▁avi	-12584
▁awi	-12585
▁awz	-12586
▁ayi	-12587
▁azf	-12588
▁azr	-12589
▁bcf	-12590
▁bep	-12591
▁bhy	-12592
▁bia	-12593
▁bkj	-12594
▁blr	-12595
▁bmy	-12596
▁bpi	-12597
▁bqs	-12598
▁brj	-12599
▁bwr	-12600
▁bxw	-12601
▁cdj	-12602
▁cds	-12603
▁cfm	-12604
▁cgi	-12605
▁chg	-12606
▁chs	-12607
▁cij	-12608
▁ciw	-12609
▁cki	-12610
▁cks	-12611
▁cla	-12612
▁crw	-12613
▁css	-12614
▁ctb	-12615
▁ctg	-12616
▁cty	-12617
▁cua	-12618
▁cvr	-12619
▁cxa	-12620
▁cza	-12621
▁czs	-12622
▁dcz	-12623
▁dej	-12624
▁dhm	-12625
▁dky	-12626
▁dnf	-12627
▁doa	-12628
▁dow	-12629
▁dpm	-12630
▁dqm	-12631
▁dqw	-12632
▁dsb	-12633
▁dui	-12634
▁dva	-12635
▁ecf	-12636
▁ecj	-12637
▁eea	-12638
▁eew	-12639
▁ege	-12640
▁egy	-12641
▁eiz	-12642
▁ejm	-12643
▁elz	-12644
▁eps	-12645
▁eqi	-12646
▁eqp	-12647
▁eue	-12648
▁evs	-12649
▁ewr	-12650
▁exr	-12651
▁eyw	-12652
▁eze	-12653
▁ezj	-12654
▁fbs	-12655
▁fdj	-12656
▁fdz	-12657
▁fiy	-12658
▁fjb	-12659
▁fkw	-12660
▁fly	-12661
▁flz	-12662
▁foi	-12663
▁fqa	-12664
▁fqm	-12665
▁fra	-12666
▁frb	-12667
▁fsr	-12668
▁fts	-12669
▁fwe	-12670
▁fyi	-12671
▁gcg	-12672
▁gcs	-12673
▁gef	-12674
▁gfs	-12675
▁ggz	-12676
▁gim	-12677
▁gir	-12678
▁gle	-12679
▁gme	-12680
▁gmi	-12681
▁gob	-12682
▁gqm	-12683
▁gse	-12684
▁gsm	-12685
▁guf	-12686
▁guj	-12687
▁gvg	-12688
▁gwj	-12689
▁gws	-12690
▁hcj	-12691
▁hcm	-12692
▁hcp	-12693
▁hij	-12694
▁hir	-12695
▁hjr	-12696
▁hkm	-12697
▁hnm	-12698
▁hnp	-12699
▁hqr	-12700
▁hsa	-12701
▁hsy	-12702
▁hxg	-12703
▁hxm	-12704
▁ide	-12705
▁idj	-12706
▁ijj	-12707
▁ilm	-12708
▁inj	-12709
▁iqb	-12710
▁irr	-12711
▁ius	-12712
▁ivp	-12713
▁iwf	-12714
▁iza	-12715
▁izj	-12716
▁izm	-12717
▁jdr	-12718
▁jez	-12719
▁jfj	-12720
▁jhg	-12721
▁jir	-12722
▁jjj	-12723
▁jkr	-12724
▁jop	-12725
▁jqe	-12726
▁jqi	-12727
▁jrf	-12728
▁jwf	-12729
▁jyg	-12730
▁jyl	-12731
▁kam	-12732
▁kcy	-12733
▁kea	-12734
▁kir	-12735
▁kke	-12736
▁kle	-12737
▁klr	-12738
▁kog	-12739
▁koy	-12740
▁koz	-12741
▁kpa	-12742
▁krm	-12743
▁kue	-12744
▁kvm	-12745
▁kwz	-12746
▁kxw	-12747
▁kxy	-12748
▁kym	-12749
▁ldb	-12750
▁lij	-12751
▁lkg	-12752
▁lkp	-12753
▁lky	-12754
▁loe	-12755
▁lsr	-12756
▁mdp	-12757
▁mds	-12758
▁mdy	-12759
▁mff	-12760
▁mgb	-12761
▁mla	-12762
▁mlm	-12763
▁mna	-12764
▁msj	-12765
▁mvg	-12766
▁naz	-12767
▁nbe	-12768
▁nbi	-12769
▁nca	-12770
▁ncb	-12771
▁ndg	-12772
▁ney	-12773
▁nez	-12774
▁njm	-12775
▁nkb	-12776
▁nlj	-12777
▁nms	-12778
▁nni	-12779
▁nqs	-12780
▁nrr	-12781
▁nsf	-12782
▁nss	-12783
▁nsz	-12784
▁ntb	-12785
▁nwj	-12786
▁nxg	-12787
▁nys	-12788
▁nzb	-12789
▁oag	-12790
▁oar	-12791
▁odm	-12792
▁ods	-12793
▁ojm	-12794
▁oka	-12795
▁oli	-12796
▁omb	-12797
▁omi	-12798
▁omj	-12799
▁opa	-12800
▁oqr	-12801
▁oss	-12802
▁oub	-12803
▁ovy	-12804
▁oxz	-12805
▁pap	-12806
▁pca	-12807
▁pcf	-12808
▁pfe	-12809
▁pir	-12810
▁pjz	-12811
▁pkg	-12812
▁pmj	-12813
▁pxu	-12814
▁pys	-12815
▁qbw	-12816
▁qcj	-12817
▁qdb	-12818
▁qep	-12819
▁qhf	-12820
▁qke	-12821
▁qlm	-12822
▁qnr	-12823
▁qns	-12824
▁qnw	-12825
▁qoj	-12826
▁qqf	-12827
▁qva	-12828
▁rat	-12829
▁rcs	-12830
▁rdb	-12831
▁rfi	-12832
▁rgm	-12833
▁rkg	-12834
▁rlw	-12835
▁rly	-12836
▁rmm	-12837
▁rvj	-12838
▁rwa	-12839
▁rxi	-12840
▁sga	-12841
▁sgr	-12842
▁sie	-12843
▁skf	-12844
▁sow	-12845
▁ssa	-12846
▁sse	-12847
▁sua	-12848
▁svp	-12849
▁sxp	-12850
▁sxz	-12851
▁szj	-12852
▁szr	-12853
▁tae	-12854
▁tbs	-12855
▁the	-12856
▁thj	-12857
▁thz	-12858
▁tib	-12859
▁tjs	-12860
▁tlp	-12861
▁tof	-12862
▁tog	-12863
▁trb	-12864
▁tvf	-12865
▁twz	-12866
▁uce	-12867
▁uiw	-12868
▁umf	-12869
▁uog	-12870
▁uop	-12871
▁upz	-12872
▁uqb	-12873
▁ure	-12874
▁usz	-12875
▁uur	-12876
▁uuy	-12877
▁uye	-12878
▁vhw	-12879
▁vjw	-12880
▁vnb	-12881
▁vog	-12882
▁vpp	-12883
▁vqg	-12884
▁vrb	-12885
▁vtj	-12886
▁vtw	-12887
▁vvp	-12888
▁vxj	-12889
▁vxw	-12890
▁vzj	-12891
▁wag	-12892
▁wam	-12893
▁wfs	-12894
▁whf	-12895
▁whj	-12896
▁wib	-12897
▁wje	-12898
▁wjn	-12899
▁wla	-12900
▁wmr	-12901
▁wnr	-12902
▁wrj	-12903
▁wtf	-12904
▁wvj	-12905
▁wxw	-12906
▁wyi	-12907
▁xbm	-12908
▁xcp	-12909
▁xcy	-12910
▁xdj	-12911
▁xei	-12912
▁xey	-12913
▁xmi	-12914
▁xmz	-12915
▁xna	-12916
▁xow	-12917
▁xqz	-12918
▁xri	-12919
▁xrj	-12920
▁xsr	-12921
▁xte	-12922
▁xub	-12923
▁xvb	-12924
▁xwr	-12925
▁xzs	-12926
▁xzz	-12927
▁yas	-12928
▁yaw	-12929
▁yha	-12930
▁yhj	-12931
▁yib	-12932
▁yle	-12933
▁yma	-12934
▁yoa	-12935
▁ypj	-12936
▁yrp	-12937
▁ytz	-12938
▁yxb	-12939
▁yyu	-12940
▁yzz	-12941
▁zda	-12942
▁zdr	-12943
▁zeb	-12944
▁zew	-12945
▁zij	-12946
▁zir	-12947
▁zjf	-12948
▁zjz	-12949
▁zka	-12950
▁zkp	-12951
▁zkz	-12952
▁zlp	-12953
▁zoz	-12954
▁zpz	-12955
▁zqm	-12956
▁zqs	-12957
▁zrf	-12958
▁zrg	-12959
▁zri	-12960
▁zsp	-12961
▁zve	-12962
▁zwp	-12963
▁zya	-12964
▁1527	-12965
▁1550	-12966
▁1553	-12967
▁1583	-12968
▁1585	-12969
▁1593	-12970
▁1624	-12971
▁1632	-12972
▁1638	-12973
▁1678	-12974
▁1713	-12975
aac	-12976
afd	-12977
amr	-12978
azy	-12979
bel	-12980
bgk	-12981
bjq	-12982
bpd	-12983
egk	-12984
est	-12985
fbc	-12986
fbv	-12987
ffx	-12988
fiq	-12989
fmk	-12990
fpt	-12991
frr	-12992
frt	-12993
fyu	-12994
gax	-12995
gjh	-12996
gmh	-12997
gwn	-12998
igh	-12999
iiu	-13000
iyo	-13001
jaj	-13002
jan	-13003
jft	-13004
jio	-13005
jrp	-13006
jsv	-13007
kdu	-13008
mgk	-13009
mwd	-13010
mwh	-13011
nok	-13012
ntk	-13013
pal	-13014
pbt	-13015
pfh	-13016
pig	-13017
pwo	-13018
pwx	-13019
rgq	-13020
rmn	-13021
rsq	-13022
rsw	-13023
rzk	-13024
rzs	-13025
saz	-13026
sbl	-13027
szc	-13028
tlh	-13029
ttt	-13030
ttv	-13031
tvx	-13032
wat	-13033
wbn	-13034
wmy	-13035
wpc	-13036
wsu	-13037
wwo	-13038
wyo	-13039
yac	-13040
yad	-13041
ybc	-13042
yby	-13043
yen	-13044
yfq	-13045
yjo	-13046
ymb	-13047
yme	-13048
yrh	-13049
yrq	-13050
yyq	-13051
yze	-13052
zwv	-13053
▁aas	-13054
▁adt	-13055
▁adw	-13056
▁adz	-13057
▁aew	-13058
▁afz	-13059
▁ahb	-13060
▁ahw	-13061
▁ajp	-13062
▁amw	-13063
▁ana	-13064
▁axj	-13065
▁axr	-13066
▁azs	-13067
▁bfj	-13068
▁bge	-13069
▁bgy	-13070
▁bij	-13071
▁bxy	-13072
▁bzs	-13073
▁car	-13074
▁cce	-13075
▁cfr	-13076
▁chy	-13077
▁cjz	-13078
▁cmr	-13079
▁cnm	-13080
▁cog	-13081
▁cpg	-13082
▁cqj	-13083
▁cqm	-13084
▁crr	-13085
▁ctj	-13086
▁cui	-13087
▁cve	-13088
▁day	-13089
▁dcm	-13090
▁dcp	-13091
▁dde	-13092
▁ddg	-13093
▁dfs	-13094
▁dgm	-13095
▁dgz	-13096
▁dhb	-13097
▁dhr	-13098
▁djw	-13099
▁dks	-13100
▁dkw	-13101
▁dkz	-13102
▁dlm	-13103
▁dna	-13104
▁dng	-13105
▁dnr	-13106
▁drb	-13107
▁drf	-13108
▁dsz	-13109
▁dtf	-13110
▁dvp	-13111
▁dwg	-13112
▁dxi	-13113
▁dxw	-13114
▁eaj	-13115
▁eca	-13116
▁eda	-13117
▁edm	-13118
▁edz	-13119
▁eer	-13120
▁efs	-13121
▁ega	-13122
▁ehy	-13123
▁eje	-13124
▁eke	-13125
▁els	-13126
▁ena	-13127
▁ens	-13128
▁ers	-13129
▁eug	-13130
▁exi	-13131
▁ezb	-13132
▁ezf	-13133
▁fbm	-13134
▁fdr	-13135
▁ffa	-13136
▁ffz	-13137
▁fim	-13138
▁fis	-13139
▁fkr	-13140
▁flb	-13141
▁fog	-13142
▁fub	-13143
▁fuf	-13144
▁fvr	-13145
▁fvz	-13146
▁fxb	-13147
▁fxi	-13148
▁fxt	-13149
▁fzi	-13150
▁fzr	-13151
▁gas	-13152
▁gcb	-13153
▁gcp	-13154
▁gcu	-13155
▁gdp	-13156
▁gdw	-13157
▁gea	-13158
▁ggm	-13159
▁ggw	-13160
▁ghm	-13161
▁gia	-13162
▁gjf	-13163
▁gjg	-13164
▁gjr	-13165
▁gjs	-13166
▁glg	-13167
▁gnb	-13168
▁gpg	-13169
▁gqs	-13170
▁gqz	-13171
▁gra	-13172
▁gub	-13173
▁gum	-13174
▁gva	-13175
▁gxt	-13176
▁gyj	-13177
▁hay	-13178
▁hei	-13179
▁hgi	-13180
▁hie	-13181
▁hip	-13182
▁hme	-13183
▁hof	-13184
▁hqe	-13185
▁hqs	-13186
▁hro	-13187
▁htm	-13188
▁hui	-13189
▁iap	-13190
▁icb	-13191
▁ida	-13192
▁iez	-13193
▁igr	-13194
▁ihb	-13195
▁ihy	-13196
▁iji	-13197
▁iks	-13198
▁ilj	-13199
▁ilr	-13200
▁ilw	-13201
▁ipz	-13202
▁iqf	-13203
▁iqy	-13204
▁iqz	-13205
▁irz	-13206
▁itb	-13207
▁itf	-13208
▁iti	-13209
▁ixi	-13210
▁ixj	-13211
▁ixr	-13212
▁jaj	-13213
▁jba	-13214
▁jda	-13215
▁jei	-13216
▁jhy	-13217
▁jia	-13218
▁jlp	-13219
▁jmm	-13220
▁jqs	-13221
▁jry	-13222
▁jty	-13223
▁jub	-13224
▁jvj	-13225
▁jvz	-13226
▁jxt	-13227
▁jyb	-13228
▁kcf	-13229
▁kdy	-13230
▁kfb	-13231
▁kfe	-13232
▁kim	-13233
▁kjw	-13234
▁kki	-13235
▁kmi	-13236
▁kor	-13237
▁kpj	-13238
▁kqb	-13239
▁kqg	-13240
▁kqi	-13241
▁ksy	-13242
▁ksz	-13243
▁kuj	-13244
▁kxz	-13245
▁lfe	-13246
▁lge	-13247
▁lhr	-13248
▁lii	-13249
▁lje	-13250
▁lka	-13251
▁lkr	-13252
▁lng	-13253
▁log	-13254
▁lpm	-13255
▁lqw	-13256
▁lrb	-13257
▁ltj	-13258
▁ltr	-13259
▁lty	-13260
▁lzp	-13261
▁mai	-13262
▁mbs	-13263
▁mdb	-13264
▁mde	-13265
▁mdj	-13266
▁mdm	-13267
▁mez	-13268
▁mgj	-13269
▁mhy	-13270
▁mly	-13271
▁mms	-13272
▁mqm	-13273
▁mse	-13274
▁mss	-13275
▁mty	-13276
▁mub	-13277
▁mur	-13278
▁mwr	-13279
▁mxe	-13280
▁myr	-13281
▁mza	-13282
▁nci	-13283
▁ndm	-13284
▁nfm	-13285
▁ngi	-13286
▁nhm	-13287
▁nir	-13288
▁njp	-13289
▁nlz	-13290
▁nmz	-13291
▁nor	-13292
▁noz	-13293
▁nqw	-13294
▁nre	-13295
▁nte	-13296
▁ntw	-13297
▁nvg	-13298
▁nwb	-13299
▁nza	-13300
▁ocw	-13301
▁oej	-13302
▁oib	-13303
▁okz	-13304
▁olg	-13305
▁ona	-13306
▁ons	-13307
▁ooj	-13308
▁opz	-13309
▁otf	-13310
▁otp	-13311
▁paj	-13312
▁paz	-13313
▁pdz	-13314
▁pee	-13315
▁pej	-13316
▁pfs	-13317
▁pha	-13318
▁phi	-13319
▁pib	-13320
▁pkz	-13321
▁pqb	-13322
▁psf	-13323
▁pte	-13324
▁pvg	-13325
▁pvi	-13326
▁pwe	-13327
▁pxg	-13328
▁pzr	-13329
▁qar	-13330
▁qlf	-13331
▁qni	-13332
▁qny	-13333
▁qoy	-13334
▁qtb	-13335
▁qug	-13336
▁qur	-13337
▁qus	-13338
▁qve	-13339
▁qvg	-13340
▁qze	-13341
▁rbe	-13342
▁rbr	-13343
▁rcf	-13344
▁rcm	-13345
▁rcy	-13346
▁rde	-13347
▁rgz	-13348
▁rii	-13349
▁rjz	-13350
▁rkr	-13351
▁rln	-13352
▁rma	-13353
▁rns	-13354
▁rqg	-13355
▁rra	-13356
▁rsr	-13357
▁rvi	-13358
▁rxt	-13359
▁sbr	-13360
▁sdg	-13361
▁sha	-13362
▁she	-13363
▁shf	-13364
▁shr	-13365
▁sii	-13366
▁sir	-13367
▁sna	-13368
▁sns	-13369
▁sny	-13370
▁sqr	-13371
▁srj	-13372
▁ssz	-13373
▁svz	-13374
▁sxg	-13375
▁sye	-13376
▁szp	-13377
▁tas	-13378
▁tce	-13379
▁tds	-13380
▁tey	-13381
▁thw	-13382
▁tii	-13383
▁tkp	-13384
▁tlf	-13385
▁tma	-13386
▁tpr	-13387
▁tqa	-13388
▁tqi	-13389
▁tsg	-13390
▁tsj	-13391
▁tte	-13392
▁ttf	-13393
▁ttg	-13394
▁tua	-13395
▁tui	-13396
▁tvj	-13397
▁tvs	-13398
▁twy	-13399
▁txg	-13400
▁txz	-13401
▁tzb	-13402
▁ubs	-13403
▁ucs	-13404
▁udr	-13405
▁uep	-13406
▁ugs	-13407
▁uiz	-13408
▁ujg	-13409
▁uji	-13410
▁ulg	-13411
▁umj	-13412
▁uqa	-13413
▁uqy	-13414
▁usg	-13415
▁usj	-13416
▁uta	-13417
▁uvb	-13418
▁uvr	-13419
▁uwk	-13420
▁var	-13421
▁vba	-13422
▁vcb	-13423
▁vcw	-13424
▁vcz	-13425
▁vhs	-13426
▁vmf	-13427
▁vng	-13428
▁vnr	-13429
▁voi	-13430
▁voj	-13431
▁vpm	-13432
▁vqi	-13433
▁vri	-13434
▁vua	-13435
▁vur	-13436
▁vvm	-13437
▁vwr	-13438
▁vxf	-13439
▁vxz	-13440
▁wef	-13441
▁wem	-13442
▁wgi	-13443
▁wgy	-13444
▁wha	-13445
▁wiw	-13446
▁wiz	-13447
▁wjb	-13448
▁wlr	-13449
▁wly	-13450
▁wpm	-13451
▁wpz	-13452
▁wqg	-13453
▁wqj	-13454
▁wrb	-13455
▁wta	-13456
▁wti	-13457
▁wtw	-13458
▁wzs	-13459
▁xar	-13460
▁xas	-13461
▁xdg	-13462
▁xer	-13463
▁xff	-13464
▁xhr	-13465
▁xim	-13466
▁xje	-13467
▁xlp	-13468
▁xmm	-13469
▁xmo	-13470
▁xqt	-13471
▁xrw	-13472
▁xss	-13473
▁xvg	-13474
▁xxm	-13475
▁xxy	-13476
▁yay	-13477
▁ybj	-13478
▁ycz	-13479
▁ydg	-13480
▁yep	-13481
▁ygr	-13482
▁ylr	-13483
▁ymj	-13484
▁ynj	-13485
▁ype	-13486
▁yrr	-13487
▁ysp	-13488
▁ytm	-13489
▁yup	-13490
▁yus	-13491
▁ywf	-13492
▁ywm	-13493
▁zas	-13494
▁zde	-13495
▁zee	-13496
▁zja	-13497
▁zlb	-13498
▁zmp	-13499
▁znr	-13500
▁zow	-13501
▁zpy	-13502
▁zre	-13503
▁zug	-13504
▁zxe	-13505
▁zys	-13506
▁1510	-13507
▁1556	-13508
▁1560	-13509
▁1579	-13510
▁1625	-13511
▁1631	-13512
▁1640	-13513
▁1645	-13514
▁1686	-13515
▁1708	-13516
▁1712	-13517
▁1731	-13518
▁1777	-13519
▁1779	-13520
abq	-13521
afq	-13522
aph	-13523
azb	-13524
bab	-13525
bic	-13526
bih	-13527
bix	-13528
bjr	-13529
bjs	-13530
bmh	-13531
bpn	-13532
bwk	-13533
bzt	-13534
ebq	-13535
fac	-13536
faw	-13537
fel	-13538
fgq	-13539
fij	-13540
fix	-13541
fjk	-13542
fmx	-13543
frq	-13544
fyn	-13545
get	-13546
gpx	-13547
gyd	-13548
hhd	-13549
jea	-13550
jgu	-13551
jjw	-13552
jmd	-13553
jsb	-13554
jze	-13555
jzp	-13556
mgn	-13557
mph	-13558
mwc	-13559
mwo	-13560
myv	-13561
nnk	-13562
oou	-13563
pat	-13564
pbc	-13565
pbk	-13566
pio	-13567
pir	-13568
pix	-13569
ppn	-13570
ppx	-13571
rfu	-13572
rsh	-13573
rwk	-13574
sbt	-13575
sfv	-13576
sin	-13577
six	-13578
smb	-13579
spd	-13580
tkc	-13581
wgh	-13582
wiq	-13583
wit	-13584
wrs	-13585
wsh	-13586
wso	-13587
wsy	-13588
wwc	-13589
wwt	-13590
wwv	-13591
yaa	-13592
yai	-13593
ybk	-13594
yjt	-13595
ymn	-13596
ywg	-13597
yyn	-13598
zjy	-13599
zwt	-13600
▁aar	-13601
▁abm	-13602
▁abr	-13603
▁abs	-13604
▁acb	-13605
▁aci	-13606
▁acr	-13607
▁adm	-13608
▁aes	-13609
▁akg	-13610
▁aky	-13611
▁alr	-13612
▁alw	-13613
▁ama	-13614
▁ams	-13615
▁anr	-13616
▁aob	-13617
▁aoi	-13618
▁aqp	-13619
▁ate	-13620
▁atr	-13621
▁auf	-13622
▁auj	-13623
▁auw	-13624
▁ava	-13625
▁axg	-13626
▁axt	-13627
▁bap	-13628
▁bas	-13629
▁bfw	-13630
▁bhb	-13631
▁bie	-13632
▁bka	-13633
▁bly	-13634
▁bnf	-13635
▁bnp	-13636
▁bns	-13637
▁bnz	-13638
▁bop	-13639
▁bor	-13640
▁bpa	-13641
▁bqi	-13642
▁brb	-13643
▁bsp	-13644
▁bum	-13645
▁bva	-13646
▁bvy	-13647
▁bza	-13648
▁bze	-13649
▁cbr	-13650
▁cdb	-13651
▁cdw	-13652
▁cfp	-13653
▁chp	-13654
▁cht	-13655
▁chv	-13656
▁clj	-13657
▁cmj	-13658
▁cnf	-13659
▁cqa	-13660
▁cti	-13661
▁cvj	-13662
▁cxb	-13663
▁cxg	-13664
▁cxp	-13665
▁cxz	-13666
▁cyk	-13667
▁czb	-13668
▁czj	-13669
▁daj	-13670
▁dba	-13671
▁dbs	-13672
▁dcb	-13673
▁dci	-13674
▁dcy	-13675
▁ddz	-13676
▁dew	-13677
▁dgw	-13678
▁dii	-13679
▁dls	-13680
▁dob	-13681
▁dop	-13682
▁dug	-13683
▁duj	-13684
▁dur	-13685
▁dxf	-13686
▁dxj	-13687
▁dzp	-13688
▁eaa	-13689
▁eck	-13690
▁ecm	-13691
▁edb	-13692
▁edp	-13693
▁eej	-13694
▁eep	-13695
▁eez	-13696
▁egs	-13697
▁ehi	-13698
▁ekg	-13699
▁ekm	-13700
▁emr	-13701
▁ent	-13702
▁epe	-13703
▁eqz	-13704
▁etf	-13705
▁eti	-13706
▁euz	-13707
▁exg	-13708
▁exy	-13709
▁eyr	-13710
▁fab	-13711
▁fba	-13712
▁fcy	-13713
▁fdi	-13714
▁fdy	-13715
▁fep	-13716
▁fer	-13717
▁ffe	-13718
▁fff	-13719
▁ffr	-13720
▁fgy	-13721
▁fhm	-13722
▁fii	-13723
▁fij	-13724
▁fjw	-13725
▁fka	-13726
▁fmf	-13727
▁fng	-13728
▁fof	-13729
▁foj	-13730
▁fos	-13731
▁fqe	-13732
▁fsj	-13733
▁fss	-13734
▁fur	-13735
▁fvw	-13736
▁fwz	-13737
▁fxa	-13738
▁gbi	-13739
▁gbr	-13740
▁gca	-13741
▁gfj	-13742
▁gkw	-13743
▁gls	-13744
▁gma	-13745
▁gmg	-13746
▁gow	-13747
▁gqj	-13748
▁gqy	-13749
▁gsj	-13750
▁gtp	-13751
▁gtw	-13752
▁gwz	-13753
▁gxe	-13754
▁gyf	-13755
▁gyw	-13756
▁hai	-13757
▁haj	-13758
▁hcb	-13759
▁hda	-13760
▁hdg	-13761
▁hef	-13762
▁hfw	-13763
▁hjp	-13764
▁hka	-13765
▁hkp	-13766
▁hla	-13767
▁hns	-13768
▁hog	-13769
▁hoi	-13770
▁hoz	-13771
▁hqb	-13772
▁huw	-13773
▁hvw	-13774
▁hzp	-13775
▁ias	-13776
▁iea	-13777
▁iej	-13778
▁ify	-13779
▁ige	-13780
▁ihj	-13781
▁iia	-13782
▁iim	-13783
▁iir	-13784
▁ikg	-13785
▁ikm	-13786
▁ilb	-13787
▁imm	-13788
▁ine	-13789
▁ion	-13790
▁ios	-13791
▁iqg	-13792
▁ite	-13793
▁iuq	-13794
▁iuw	-13795
▁ivr	-13796
▁ixm	-13797
▁jap	-13798
▁jas	-13799
▁jbr	-13800
▁jcg	-13801
▁jcm	-13802
▁jdb	-13803
▁jeg	-13804
▁jgr	-13805
▁jhf	-13806
▁jhw	-13807
▁jke	-13808
▁jkz	-13809
▁jmf	-13810
▁jmz	-13811
▁jnp	-13812
▁jos	-13813
▁jsi	-13814
▁jur	-13815
▁jve	-13816
▁jvg	-13817
▁kaj	-13818
▁kcj	-13819
▁kde	-13820
▁kdm	-13821
▁kfs	-13822
▁kfw	-13823
▁kga	-13824
▁khm	-13825
▁kiw	-13826
▁kiy	-13827
▁kjb	-13828
▁kkp	-13829
▁kli	-13830
▁klp	-13831
▁kma	-13832
▁kom	-13833
▁kow	-13834
▁kqf	-13835
▁kqm	-13836
▁ksj	-13837
▁kta	-13838
▁kvf	-13839
▁kvj	-13840
▁kvp	-13841
▁kwi	-13842
▁kxe	-13843
▁kxm	-13844
▁kyj	-13845
▁kza	-13846
▁kzy	-13847
▁lde	-13848
▁lem	-13849
▁ler	-13850
▁lhz	-13851
▁lof	-13852
▁loz	-13853
▁lqa	-13854
▁lqi	-13855
▁lse	-13856
▁lss	-13857
▁lur	-13858
▁lvr	-13859
▁lwe	-13860
▁lxa	-13861
▁lxi	-13862
▁lye	-13863
▁mas	-13864
▁mba	-13865
▁mcw	-13866
▁mea	-13867
▁mer	-13868
▁mhm	-13869
▁mip	-13870
▁mjb	-13871
▁mkf	-13872
▁mkj	-13873
▁mlr	-13874
▁mpz	-13875
▁mqf	-13876
▁mrw	-13877
▁mrz	-13878
▁mtg	-13879
▁mtz	-13880
▁mvb	-13881
▁mvp	-13882
▁mym	-13883
▁mys	-13884
▁mzg	-13885
▁nap	-13886
▁ndi	-13887
▁ndz	-13888
▁nfz	-13889
▁nhb	-13890
▁nhf	-13891
▁nhp	-13892
▁nla	-13893
▁nlf	-13894
▁nna	-13895
▁nng	-13896
▁nqy	-13897
▁nug	-13898
▁nva	-13899
▁nvb	-13900
▁nzy	-13901
▁oaa	-13902
▁oca	-13903
▁ocg	-13904
▁ocs	-13905
▁ofr	-13906
▁ohz	-13907
▁oiz	-13908
▁ojb	-13909
▁ojp	-13910
▁omr	-13911
▁oms	-13912
▁oof	-13913
▁opy	-13914
▁oqz	-13915
▁osr	-13916
▁osw	-13917
▁oum	-13918
▁ovj	-13919
▁pdw	-13920
▁pez	-13921
▁pgz	-13922
▁phj	-13923
▁phs	-13924
▁phy	-13925
▁pky	-13926
▁pla	-13927
▁pns	-13928
▁pos	-13929
▁ppf	-13930
▁ppm	-13931
▁pqr	-13932
▁ptm	-13933
▁pva	-13934
▁pxy	-13935
▁qbr	-13936
▁qdl	-13937
▁qea	-13938
▁qei	-13939
▁qhj	-13940
▁qhy	-13941
▁qji	-13942
▁qkf	-13943
▁qki	-13944
▁qlb	-13945
▁qle	-13946
▁qlr	-13947
▁qlz	-13948
▁qmf	-13949
▁qms	-13950
▁qob	-13951
▁qoz	-13952
▁qss	-13953
▁qua	-13954
▁quf	-13955
▁quj	-13956
▁qwj	-13957
▁qwr	-13958
▁raw	-13959
▁rbm	-13960
▁rcz	-13961
▁rff	-13962
▁rjw	-13963
▁rka	-13964
▁rks	-13965
▁ros	-13966
▁rpm	-13967
▁rpr	-13968
▁rrz	-13969
▁rsg	-13970
▁rvf	-13971
▁rvm	-13972
▁rvs	-13973
▁rxm	-13974
▁rzf	-13975
▁rzy	-13976
▁sae	-13977
▁saj	-13978
▁sam	-13979
▁scp	-13980
▁seb	-13981
▁skr	-13982
▁sla	-13983
▁slw	-13984
▁sog	-13985
▁soi	-13986
▁stj	-13987
▁sub	-13988
▁svb	-13989
▁sxj	-13990
▁sze	-13991
▁taz	-13992
▁tbe	-13993
▁tca	-13994
▁tcw	-13995
▁tdw	-13996
▁tdz	-13997
▁tfa	-13998
▁tgi	-13999
▁tgr	-14000
▁tje	-14001
▁tjy	-14002
▁tkw	-14003
▁tle	-14004
▁tng	-14005
▁toi	-14006
▁tpp	-14007
▁tps	-14008
▁tqb	-14009
▁tra	-14010
▁tum	-14011
▁tuw	-14012
▁tvg	-14013
▁twb	-14014
▁tzr	-14015
▁uai	-14016
▁uby	-14017
▁ude	-14018
▁uef	-14019
▁ufs	-14020
▁uhb	-14021
▁ukr	-14022
▁ulp	-14023
▁unb	-14024
▁uob	-14025
▁uoe	-14026
▁upm	-14027
▁upw	-14028
▁ura	-14029
▁uti	-14030
▁uty	-14031
▁uuf	-14032
▁uup	-14033
▁uwj	-14034
▁vbz	-14035
▁vcy	-14036
▁vea	-14037
▁ver	-14038
▁vge	-14039
▁vgi	-14040
▁vgy	-14041
▁vip	-14042
▁vkm	-14043
▁vlg	-14044
▁vly	-14045
▁vms	-14046
▁voe	-14047
▁vps	-14048
▁vqm	-14049
▁vuj	-14050
▁vwf	-14051
▁vxa	-14052
▁wbb	-14053
▁wbr	-14054
▁wby	-14055
▁wca	-14056
▁wcw	-14057
▁wdf	-14058
▁wfz	-14059
▁wgs	-14060
▁whi	-14061
▁whm	-14062
▁wii	-14063
▁wji	-14064
▁wka	-14065
▁wlg	-14066
▁wlz	-14067
▁wmq	-14068
▁wna	-14069
▁woa	-14070
▁wob	-14071
▁wqa	-14072
▁wqy	-14073
▁wra	-14074
▁wwe	-14075
▁wwz	-14076
▁wxz	-14077
▁wyg	-14078
▁xag	-14079
▁xca	-14080
▁xcj	-14081
▁xcs	-14082
▁xcw	-14083
▁xdf	-14084
▁xgr	-14085
▁xhe	-14086
▁xif	-14087
▁xkj	-14088
▁xkw	-14089
▁xnb	-14090
▁xne	-14091
▁xnz	-14092
▁xob	-14093
▁xof	-14094
▁xsw	-14095
▁xum	-14096
▁yab	-14097
▁yca	-14098
▁ydp	-14099
▁yfw	-14100
▁yhi	-14101
▁yhy	-14102
▁yij	-14103
▁ykp	-14104
▁ykw	-14105
▁ymf	-14106
▁ynf	-14107
▁yny	-14108
▁yor	-14109
▁ypa	-14110
▁yrm	-14111
▁ytb	-14112
▁yua	-14113
▁yuf	-14114
▁yui	-14115
▁yur	-14116
▁yvg	-14117
▁yvs	-14118
▁yvz	-14119
▁yxt	-14120
▁yye	-14121
▁zcj	-14122
▁zcm	-14123
▁zdz	-14124
▁zea	-14125
▁zep	-14126
▁zga	-14127
▁zgb	-14128
▁zhj	-14129
▁zhp	-14130
▁zhz	-14131
▁zki	-14132
▁zlr	-14133
▁zom	-14134
▁zqz	-14135
▁zty	-14136
▁zva	-14137
▁zvz	-14138
▁zwa	-14139
▁zwg	-14140
▁zxi	-14141
▁1531	-14142
▁1576	-14143
▁1581	-14144
▁1597	-14145
▁1621	-14146
▁1658	-14147
▁1662	-14148
▁1676	-14149
▁1704	-14150
▁1706	-14151
▁1710	-14152
▁1745	-14153
aau	-14154
aiw	-14155
azm	-14156
bau	-14157
bst	-14158
ffc	-14159
fgc	-14160
fim	-14161
fmc	-14162
fpc	-14163
fyd	-14164
gah	-14165
gaz	-14166
ggo	-14167
gjq	-14168
gml	-14169
igo	-14170
jas	-14171
jjs	-14172
jju	-14173
jru	-14174
jrw	-14175
mgc	-14176
mgh	-14177
mpv	-14178
pei	-14179
piv	-14180
pzl	-14181
pzv	-14182
ree	-14183
rfk	-14184
rgh	-14185
rso	-14186
rsv	-14187
ryo	-14188
saj	-14189
sia	-14190
srr	-14191
tnk	-14192
tvu	-14193
wgu	-14194
wio	-14195
wml	-14196
wmo	-14197
wrd	-14198
wsm	-14199
wwl	-14200
wzx	-14201
yau	-14202
ymo	-14203
ymt	-14204
ymx	-14205
ywu	-14206
yyk	-14207
yyt	-14208
yyx	-14209
zjo	-14210
▁aem	-14211
▁aer	-14212
▁afr	-14213
▁agm	-14214
▁ahf	-14215
▁ahi	-14216
▁aij	-14217
▁ajb	-14218
▁aji	-14219
▁ajj	-14220
▁als	-14221
▁aoj	-14222
▁aom	-14223
▁aop	-14224
▁aor	-14225
▁apr	-14226
▁atg	-14227
▁ats	-14228
▁aui	-14229
▁aup	-14230
▁auz	-14231
▁avm	-14232
▁avw	-14233
▁awe	-14234
▁awf	-14235
▁axf	-14236
▁axy	-14237
▁bdy	-14238
▁bea	-14239
▁bgh	-14240
▁bgi	-14241
▁bhz	-14242
▁biy	-14243
▁bkq	-14244
▁bms	-14245
▁bpm	-14246
▁bqg	-14247
▁bqw	-14248
▁btb	-14249
▁buj	-14250
▁bun	-14251
▁bus	-14252
▁bvj	-14253
▁bvs	-14254
▁bxa	-14255
▁bxt	-14256
▁bye	-14257
▁byi	-14258
▁byp	-14259
▁bzg	-14260
▁ccb	-14261
▁ccr	-14262
▁ccz	-14263
▁cde	-14264
▁cdf	-14265
▁cdp	-14266
▁cem	-14267
▁cer	-14268
▁chi	-14269
▁cho	-14270
▁chw	-14271
▁cji	-14272
▁cjw	-14273
▁ckj	-14274
▁ckp	-14275
▁cle	-14276
▁clf	-14277
▁cly	-14278
▁cmo	-14279
▁cnb	-14280
▁cni	-14281
▁coi	-14282
▁com	-14283
▁cpm	-14284
▁csb	-14285
▁cte	-14286
▁ctf	-14287
▁cxw	-14288
▁czf	-14289
▁ddp	-14290
▁dey	-14291
▁dff	-14292
▁dha	-14293
▁dhg	-14294
▁dki	-14295
▁dle	-14296
▁dli	-14297
▁dma	-14298
▁dme	-14299
▁dmr	-14300
▁dnj	-14301
▁dnm	-14302
▁dnz	-14303
▁dpj	-14304
▁dqr	-14305
▁dtm	-14306
▁dtr	-14307
▁duf	-14308
▁dum	-14309
▁duy	-14310
▁dvy	-14311
▁dwb	-14312
▁dzb	-14313
▁eaf	-14314
▁ear	-14315
▁ebj	-14316
▁ecb	-14317
▁edy	-14318
▁efe	-14319
▁eit	-14320
▁ejy	-14321
▁ele	-14322
▁elp	-14323
▁emp	-14324
▁emz	-14325
▁eny	-14326
▁enz	-14327
▁eor	-14328
▁epy	-14329
▁eqf	-14330
▁eqs	-14331
▁esb	-14332
▁ete	-14333
▁evz	-14334
▁exn	-14335
▁exp	-14336
▁exz	-14337
▁eyi	-14338
▁ezp	-14339
▁ezs	-14340
▁fcp	-14341
▁fda	-14342
▁fde	-14343
▁fds	-14344
▁fdw	-14345
▁feb	-14346
▁fej	-14347
▁ffi	-14348
▁fgm	-14349
▁fgw	-14350
▁fhb	-14351
▁fir	-14352
▁fky	-14353
▁fmw	-14354
▁fne	-14355
▁fnw	-14356
▁fny	-14357
▁fob	-14358
▁for	-14359
▁fsp	-14360
▁fui	-14361
▁fup	-14362
▁fwi	-14363
▁fyp	-14364
▁gbe	-14365
▁gdg	-14366
▁gdm	-14367
▁ger	-14368
▁ggj	-14369
▁gkg	-14370
▁glf	-14371
▁gmw	-14372
▁goj	-14373
▁gqa	-14374
▁gqi	-14375
▁gqr	-14376
▁gss	-14377
▁gty	-14378
▁gue	-14379
▁gun	-14380
▁gxf	-14381
▁hbp	-14382
▁hcz	-14383
▁hdh	-14384
▁hdz	-14385
▁hew	-14386
▁hfm	-14387
▁hgy	-14388
▁hhf	-14389
▁hhg	-14390
▁hhm	-14391
▁hkw	-14392
▁hlb	-14393
▁hli	-14394
▁hni	-14395
▁hnw	-14396
▁hnz	-14397
▁hqj	-14398
▁hqm	-14399
▁hrw	-14400
▁hsw	-14401
▁hvj	-14402
▁hwj	-14403
▁hyr	-14404
▁hzj	-14405
▁ibp	-14406
▁ibr	-14407
▁icf	-14408
▁icl	-14409
▁icw	-14410
▁ier	-14411
▁iga	-14412
▁ihp	-14413
▁ija	-14414
▁ika	-14415
▁ila	-14416
▁ing	-14417
▁inr	-14418
▁ins	-14419
▁iog	-14420
▁ioi	-14421
▁ivf	-14422
▁izs	-14423
▁jbm	-14424
▁jbs	-14425
▁jcb	-14426
▁jdp	-14427
▁jes	-14428
▁jfm	-14429
▁jgy	-14430
▁jii	-14431
▁jip	-14432
▁jko	-14433
▁jla	-14434
▁jmy	-14435
▁jng	-14436
▁jnw	-14437
▁joe	-14438
▁jot	-14439
▁jsb	-14440
▁juw	-14441
▁jvp	-14442
▁jwb	-14443
▁jwe	-14444
▁kab	-14445
▁kbr	-14446
▁kce	-14447
▁kcr	-14448
▁kda	-14449
▁kfy	-14450
▁khb	-14451
▁kkj	-14452
▁knb	-14453
▁knf	-14454
▁knm	-14455
▁kob	-14456
▁krp	-14457
▁kse	-14458
▁ktm	-14459
▁kts	-14460
▁kty	-14461
▁kye	-14462
▁kys	-14463
▁kyw	-14464
▁lar	-14465
▁lcb	-14466
▁lfp	-14467
▁lfr	-14468
▁lhe	-14469
▁lhg	-14470
▁lhy	-14471
▁lkf	-14472
▁lla	-14473
▁lls	-14474
▁llw	-14475
▁lnj	-14476
▁lrf	-14477
▁lsg	-14478
▁ltp	-14479
▁lua	-14480
▁lum	-14481
▁lvp	-14482
▁lww	-14483
▁lxg	-14484
▁lxt	-14485
▁lzi	-14486
▁lzs	-14487
▁mcp	-14488
▁mdf	-14489
▁mey	-14490
▁mhn	-14491
▁mir	-14492
▁mkm	-14493
▁mkw	-14494
▁mlb	-14495
▁mlf	-14496
▁mli	-14497
▁mlw	-14498
▁mma	-14499
▁mmj	-14500
▁mmn	-14501
▁mmr	-14502
▁mns	-14503
▁mnt	-14504
▁mnw	-14505
▁mob	-14506
▁moe	-14507
▁moy	-14508
▁mqe	-14509
▁mqi	-14510
▁mqj	-14511
▁mqs	-14512
▁mqy	-14513
▁msb	-14514
▁mte	-14515
▁mxt	-14516
▁mzi	-14517
▁nbj	-14518
▁nbr	-14519
▁ndr	-14520
▁nep	-14521
▁nes	-14522
▁nfr	-14523
▁nhz	-14524
▁nif	-14525
▁nje	-14526
▁njw	-14527
▁nks	-14528
▁nlb	-14529
▁nma	-14530
▁nnf	-14531
▁nny	-14532
▁npe	-14533
▁nqe	-14534
▁nqf	-14535
▁nsr	-14536
▁nub	-14537
▁nuy	-14538
▁nvp	-14539
▁nzl	-14540
▁obz	-14541
▁ocm	-14542
▁odg	-14543
▁ohs	-14544
▁oir	-14545
▁ojg	-14546
▁ojr	-14547
▁okj	-14548
▁ola	-14549
▁one	-14550
▁onw	-14551
▁ooy	-14552
▁ooz	-14553
▁ope	-14554
▁oqi	-14555
▁osi	-14556
▁oti	-14557
▁oup	-14558
▁our	-14559
▁ouw	-14560
▁ova	-14561
▁ovf	-14562
▁ovg	-14563
▁owj	-14564
▁oxf	-14565
▁oyz	-14566
▁ozs	-14567
▁pcj	-14568
▁pcn	-14569
▁pcs	-14570
▁pfi	-14571
▁pfr	-14572
▁pgm	-14573
▁phz	-14574
▁pjb	-14575
▁pkj	-14576
▁plg	-14577
▁pls	-14578
▁pmg	-14579
▁pmy	-14580
▁pna	-14581
▁pnb	-14582
▁pnm	-14583
▁pnp	-14584
▁pod	-14585
▁pom	-14586
▁pow	-14587
▁poz	-14588
▁prf	-14589
▁pss	-14590
▁pti	-14591
▁ptr	-14592
▁puj	-14593
▁pwj	-14594
▁pxe	-14595
▁pxz	-14596
▁pyb	-14597
▁qaa	-14598
▁qas	-14599
▁qbm	-14600
▁qcq	-14601
▁qdw	-14602
▁qdy	-14603
▁qem	-14604
▁qfa	-14605
▁qfs	-14606
▁qgb	-14607
▁qgr	-14608
▁qhi	-14609
▁qhm	-14610
▁qij	-14611
▁qkm	-14612
▁qls	-14613
▁qma	-14614
▁qmy	-14615
▁qmz	-14616
▁qoi	-14617
▁qqp	-14618
▁qrs	-14619
▁qte	-14620
▁qvy	-14621
▁qwz	-14622
▁qxp	-14623
▁qzb	-14624
▁qzs	-14625
▁rcr	-14626
▁rdj	-14627
▁rhw	-14628
▁rhz	-14629
▁rjy	-14630
▁rke	-14631
▁rne	-14632
▁row	-14633
▁rpe	-14634
▁rqb	-14635
▁rqs	-14636
▁rqz	-14637
▁rss	-14638
▁rtf	-14639
▁rtm	-14640
▁rtw	-14641
▁rvr	-14642
▁rxg	-14643
▁rxr	-14644
▁ryw	-14645
▁sbe	-14646
▁scm	-14647
▁sef	-14648
▁sgz	-14649
▁shb	-14650
▁sis	-14651
▁sje	-14652
▁sjt	-14653
▁skw	-14654
▁sky	-14655
▁slg	-14656
▁sok	-14657
▁soz	-14658
▁sqm	-14659
▁sqw	-14660
▁ssp	-14661
▁str	-14662
▁sty	-14663
▁sue	-14664
▁sui	-14665
▁sxe	-14666
▁syj	-14667
▁sym	-14668
▁tar	-14669
▁tbb	-14670
▁tcm	-14671
▁tdr	-14672
▁tei	-14673
▁tgy	-14674
▁tgz	-14675
▁ths	-14676
▁tia	-14677
▁tjg	-14678
▁tjp	-14679
▁tjr	-14680
▁tmj	-14681
▁tos	-14682
▁tpm	-14683
▁tqs	-14684
▁trp	-14685
▁tsp	-14686
▁tsz	-14687
▁ttp	-14688
▁tty	-14689
▁tvy	-14690
▁tws	-14691
▁twt	-14692
▁tza	-14693
▁uab	-14694
▁ucp	-14695
▁ucz	-14696
▁udf	-14697
▁udz	-14698
▁uho	-14699
▁uif	-14700
▁uig	-14701
▁uiy	-14702
▁uki	-14703
▁uks	-14704
▁uky	-14705
▁ulb	-14706
▁uqg	-14707
▁uqp	-14708
▁urj	-14709
▁usb	-14710
▁uue	-14711
▁uum	-14712
▁uvm	-14713
▁uxf	-14714
▁uxr	-14715
▁uxt	-14716
▁uym	-14717
▁vdb	-14718
▁vdw	-14719
▁vef	-14720
▁vez	-14721
▁vfe	-14722
▁vgm	-14723
▁vhb	-14724
▁vjz	-14725
▁vka	-14726
▁vla	-14727
▁vma	-14728
▁vnf	-14729
▁vnm	-14730
▁vny	-14731
▁vnz	-14732
▁vob	-14733
▁vpz	-14734
▁vqb	-14735
▁vrp	-14736
▁vrw	-14737
▁vsj	-14738
▁vue	-14739
▁vui	-14740
▁vum	-14741
▁vwa	-14742
▁vwe	-14743
▁vxi	-14744
▁vxt	-14745
▁vyj	-14746
▁vys	-14747
▁waj	-14748
▁wap	-14749
▁wda	-14750
▁wdg	-14751
▁wdm	-14752
▁wer	-14753
▁wfk	-14754
▁wfr	-14755
▁whe	-14756
▁wij	-14757
▁wir	-14758
▁wiy	-14759
▁wpj	-14760
▁wqf	-14761
▁wqi	-14762
▁wrp	-14763
▁wrz	-14764
▁wsw	-14765
▁wsz	-14766
▁wtb	-14767
▁wtm	-14768
▁wvp	-14769
▁wwa	-14770
▁wym	-14771
▁xbf	-14772
▁xbi	-14773
▁xbs	-14774
▁xbz	-14775
▁xce	-14776
▁xdp	-14777
▁xdz	-14778
▁xez	-14779
▁xha	-14780
▁xhf	-14781
▁xhg	-14782
▁xis	-14783
▁xiw	-14784
▁xmb	-14785
▁xms	-14786
▁xnp	-14787
▁xns	-14788
▁xps	-14789
▁xpz	-14790
▁xqw	-14791
▁xqy	-14792
▁xsb	-14793
▁xui	-14794
▁xwp	-14795
▁xxj	-14796
▁xyp	-14797
▁xzg	-14798
▁xzy	-14799
▁yba	-14800
▁ybf	-14801
▁ycf	-14802
▁ydi	-14803
▁yfe	-14804
▁ygm	-14805
▁ygz	-14806
▁yir	-14807
▁yji	-14808
▁yjw	-14809
▁yki	-14810
▁ykj	-14811
▁ylz	-14812
▁yoe	-14813
▁yos	-14814
▁ypi	-14815
▁ypr	-14816
▁yqa	-14817
▁yty	-14818
▁yun	-14819
▁yvb	-14820
▁yvf	-14821
▁yvp	-14822
▁yxo	-14823
▁yxy	-14824
▁zbz	-14825
▁zca	-14826
▁zdb	-14827
▁zdi	-14828
▁zfs	-14829
▁zgy	-14830
▁zii	-14831
▁zis	-14832
▁zjs	-14833
▁zkj	-14834
▁zmr	-14835
▁znj	-14836
▁zoa	-14837
▁zop	-14838
▁zor	-14839
▁zrr	-14840
▁zsf	-14841
▁zss	-14842
▁ztg	-14843
▁zua	-14844
▁zuj	-14845
▁zvm	-14846
▁1520	-14847
▁1572	-14848
▁1574	-14849
▁1589	-14850
▁1602	-14851
▁1603	-14852
▁1614	-14853
▁1623	-14854
▁1629	-14855
▁1659	-14856
▁1666	-14857
▁1669	-14858
▁1670	-14859
▁1681	-14860
▁1693	-14861
▁1699	-14862
▁1715	-14863
▁1740	-14864
▁1743	-14865
aem	-14866
aen	-14867
awq	-14868
ayc	-14869
azf	-14870
azp	-14871
bgh	-14872
bgv	-14873
biq	-14874
bwo	-14875
byl	-14876
egq	-14877
egv	-14878
fan	-14879
fav	-14880
fbh	-14881
fml	-14882
fsx	-14883
gaq	-14884
gbn	-14885
gef	-14886
gex	-14887
gwv	-14888
iag	-14889
ifq	-14890
igd	-14891
igt	-14892
ipq	-14893
jaw	-14894
jfq	-14895
jjy	-14896
jmu	-14897
jsg	-14898
jsx	-14899
jzk	-14900
jzu	-14901
jzz	-14902
mbd	-14903
mgo	-14904
mwk	-14905
noq	-14906
olc	-14907
paf	-14908
pao	-14909
pgt	-14910
psk	-14911
pwl	-14912
pwu	-14913
rau	-14914
rem	-14915
rsy	-14916
ryh	-14917
rzm	-14918
sft	-14919
siz	-14920
sms	-14921
vvh	-14922
wmg	-14923
wrc	-14924
wsc	-14925
wwh	-14926
wyn	-14927
wyq	-14928
wzh	-14929
yaf	-14930
yal	-14931
yaq	-14932
yax	-14933
yeu	-14934
yry	-14935
yzn	-14936
yzw	-14937
zgv	-14938
zmm	-14939
zwk	-14940
▁aaw	-14941
▁abz	-14942
▁acf	-14943
▁adg	-14944
▁ads	-14945
▁agf	-14946
▁ahm	-14947
▁aiw	-14948
▁akr	-14949
▁alm	-14950
▁amh	-14951
▁amj	-14952
▁anm	-14953
▁apj	-14954
▁asm	-14955
▁ave	-14956
▁axb	-14957
▁ayj	-14958
▁ays	-14959
▁azg	-14960
▁bag	-14961
▁baw	-14962
▁bcm	-14963
▁bdf	-14964
▁bgr	-14965
▁bhi	-14966
▁bis	-14967
▁bjf	-14968
▁bjr	-14969
▁bkb	-14970
▁bke	-14971
▁blz	-14972
▁bne	-14973
▁boa	-14974
▁bom	-14975
▁bos	-14976
▁bpy	-14977
▁bqa	-14978
▁bqy	-14979
▁bqz	-14980
▁bsb	-14981
▁btm	-14982
▁bty	-14983
▁bvb	-14984
▁cbs	-14985
▁ccf	-14986
▁ccj	-14987
▁ccp	-14988
▁cdm	-14989
▁cdr	-14990
▁cgr	-14991
▁ciy	-14992
▁ckz	-14993
▁cls	-14994
▁cns	-14995
▁coj	-14996
▁cow	-14997
▁cpe	-14998
▁cpi	-14999
▁cpr	-15000
▁cqe	-15001
▁cqi	-15002
▁csp	-15003
▁ctw	-15004
▁cul	-15005
▁cuw	-15006
▁cvs	-15007
▁cwa	-15008
▁cwb	-15009
▁cxt	-15010
▁cyp	-15011
▁cyy	-15012
▁dak	-15013
▁dbm	-15014
▁dcs	-15015
▁def	-15016
▁des	-15017
▁dfe	-15018
▁dfm	-15019
▁dgs	-15020
▁dhs	-15021
▁dhy	-15022
▁djy	-15023
▁dlb	-15024
▁dln	-15025
▁dms	-15026
▁dns	-15027
▁doi	-15028
▁dpe	-15029
▁dqa	-15030
▁dqi	-15031
▁dqj	-15032
▁drm	-15033
▁dsf	-15034
▁dup	-15035
▁dvg	-15036
▁dyp	-15037
▁eas	-15038
▁eba	-15039
▁ebw	-15040
▁eci	-15041
▁ecs	-15042
▁edr	-15043
▁efj	-15044
▁efr	-15045
▁ehr	-15046
▁ejf	-15047
▁eji	-15048
▁ekf	-15049
▁ekw	-15050
▁elr	-15051
▁elw	-15052
▁emt	-15053
▁enw	-15054
▁eoj	-15055
▁epa	-15056
▁esa	-15057
▁esg	-15058
▁esj	-15059
▁esw	-15060
▁etb	-15061
▁eub	-15062
▁eup	-15063
▁eva	-15064
▁evh	-15065
▁ewi	-15066
▁eyf	-15067
▁eza	-15068
▁faa	-15069
▁fag	-15070
▁fcm	-15071
▁fcw	-15072
▁fem	-15073
▁fge	-15074
▁fgi	-15075
▁fgs	-15076
▁fhi	-15077
▁fhp	-15078
▁fht	-15079
▁fia	-15080
▁fiw	-15081
▁fjy	-15082
▁flp	-15083
▁flr	-15084
▁fnb	-15085
▁foa	-15086
▁fpg	-15087
▁fpy	-15088
▁fqf	-15089
▁fqy	-15090
▁fvb	-15091
▁fyj	-15092
▁gbs	-15093
▁gey	-15094
▁gez	-15095
▁gfb	-15096
▁ghe	-15097
▁ghf	-15098
▁giz	-15099
▁gjc	-15100
▁gka	-15101
▁gki	-15102
▁gky	-15103
▁glj	-15104
▁gmr	-15105
▁goe	-15106
▁gvi	-15107
▁gvj	-15108
▁gvr	-15109
▁gwa	-15110
▁has	-15111
▁hba	-15112
▁hdb	-15113
▁hde	-15114
▁hep	-15115
▁hii	-15116
▁hiw	-15117
▁hki	-15118
▁hle	-15119
▁hmi	-15120
▁hmp	-15121
▁hms	-15122
▁hor	-15123
▁hpj	-15124
▁hsj	-15125
▁hte	-15126
▁htf	-15127
▁hul	-15128
▁hvs	-15129
▁hvz	-15130
▁hwa	-15131
▁hxk	-15132
▁hxy	-15133
▁hzf	-15134
▁hzk	-15135
▁hzr	-15136
▁iaa	-15137
▁iag	-15138
▁ice	-15139
▁idb	-15140
▁idg	-15141
▁idz	-15142
▁iei	-15143
▁iey	-15144
▁ifi	-15145
▁igp	-15146
▁iip	-15147
▁iiy	-15148
▁ilg	-15149
▁imf	-15150
▁imp	-15151
▁imy	-15152
▁ioa	-15153
▁ioz	-15154
▁ipj	-15155
▁iub	-15156
▁iva	-15157
▁ivw	-15158
▁ixt	-15159
▁izy	-15160
▁jar	-15161
▁jbf	-15162
▁jbp	-15163
▁jce	-15164
▁jdj	-15165
▁jhb	-15166
▁jhe	-15167
▁jhs	-15168
▁jkj	-15169
▁jkm	-15170
▁jlg	-15171
▁jnr	-15172
▁jql	-15173
▁jra	-15174
▁jrj	-15175
▁jrl	-15176
▁jsg	-15177
▁jsj	-15178
▁jsy	-15179
▁jtg	-15180
▁jua	-15181
▁jui	-15182
▁jvf	-15183
▁jvy	-15184
▁jws	-15185
▁jyi	-15186
▁jyp	-15187
▁jyr	-15188
▁jzf	-15189
▁jzp	-15190
▁kba	-15191
▁kbb	-15192
▁kbe	-15193
▁kbq	-15194
▁kcg	-15195
▁kdf	-15196
▁kgr	-15197
▁khg	-15198
▁khj	-15199
▁khy	-15200
▁kia	-15201
▁kip	-15202
▁kju	-15203
▁kkb	-15204
▁kkg	-15205
▁kla	-15206
▁kna	-15207
▁kng	-15208
▁kqe	-15209
▁ksp	-15210
▁kuz	-15211
▁lbr	-15212
▁lbs	-15213
▁lbz	-15214
▁lcj	-15215
▁leb	-15216
▁lef	-15217
▁lep	-15218
▁lfa	-15219
▁lgj	-15220
▁lhm	-15221
▁lji	-15222
▁ljw	-15223
▁ljy	-15224
▁lly	-15225
▁lms	-15226
▁lna	-15227
▁lnp	-15228
▁loj	-15229
▁lol	-15230
▁lpj	-15231
▁lqb	-15232
▁lqs	-15233
▁lti	-15234
▁lup	-15235
▁lva	-15236
▁lyw	-15237
▁maf	-15238
▁mbr	-15239
▁mce	-15240
▁mdz	-15241
▁mfe	-15242
▁mfm	-15243
▁mgr	-15244
▁mij	-15245
▁mje	-15246
▁mjf	-15247
▁mjp	-15248
▁mki	-15249
▁mld	-15250
▁mlz	-15251
▁mnb	-15252
▁mng	-15253
▁mog	-15254
▁moi	-15255
▁moj	-15256
▁mop	-15257
▁mow	-15258
▁msf	-15259
▁mua	-15260
▁mus	-15261
▁mve	-15262
▁mxa	-15263
▁mxr	-15264
▁naf	-15265
▁nbs	-15266
▁nce	-15267
▁ncm	-15268
▁ncz	-15269
▁nfe	-15270
▁nfp	-15271
▁ngy	-15272
▁nij	-15273
▁niw	-15274
▁nka	-15275
▁nke	-15276
▁nkj	-15277
▁nlr	-15278
▁nmr	-15279
▁nmw	-15280
▁noy	-15281
▁npi	-15282
▁npj	-15283
▁npm	-15284
▁nqa	-15285
▁nso	-15286
▁nvf	-15287
▁nvj	-15288
▁nxy	-15289
▁oda	-15290
▁oez	-15291
▁off	-15292
▁ofs	-15293
▁oga	-15294
▁ogs	-15295
▁oha	-15296
▁ohi	-15297
▁ojl	-15298
▁oki	-15299
▁okr	-15300
▁olj	-15301
▁ony	-15302
▁ooi	-15303
▁opb	-15304
▁otg	-15305
▁ots	-15306
▁owf	-15307
▁owy	-15308
▁paw	-15309
▁pba	-15310
▁pbm	-15311
▁pcr	-15312
▁pdm	-15313
▁pds	-15314
▁pdv	-15315
▁pfw	-15316
▁pkf	-15317
▁pkr	-15318
▁pli	-15319
▁pmr	-15320
▁pnf	-15321
▁poa	-15322
▁pof	-15323
▁poi	-15324
▁ppe	-15325
▁pqj	-15326
▁pqs	-15327
▁prw	-15328
▁pse	-15329
▁pur	-15330
▁pvw	-15331
▁pxa	-15332
▁pxm	-15333
▁qab	-15334
▁qbi	-15335
▁qdr	-15336
▁qgz	-15337
▁qhb	-15338
▁qjp	-15339
▁qjw	-15340
▁qnm	-15341
▁qnz	-15342
▁qom	-15343
▁qqr	-15344
▁qqs	-15345
▁qtj	-15346
▁qwe	-15347
▁qxi	-15348
▁qym	-15349
▁qys	-15350
▁qzd	-15351
▁raj	-15352
▁rcb	-15353
▁rce	-15354
▁rci	-15355
▁rdz	-15356
▁rfm	-15357
▁rfp	-15358
▁rgj	-15359
▁rhr	-15360
▁rir	-15361
▁rkz	-15362
▁rlg	-15363
▁rlp	-15364
▁rmr	-15365
▁rms	-15366
▁rmz	-15367
▁roz	-15368
▁rrf	-15369
▁rsw	-15370
▁rua	-15371
▁rub	-15372
▁rup	-15373
▁rvg	-15374
▁rys	-15375
▁rzb	-15376
▁rzj	-15377
▁rzs	-15378
▁saf	-15379
▁scb	-15380
▁scz	-15381
▁sfj	-15382
▁sgl	-15383
▁sip	-15384
▁slb	-15385
▁sma	-15386
▁snf	-15387
▁snp	-15388
▁soe	-15389
▁spj	-15390
▁sqg	-15391
▁srb	-15392
▁srp	-15393
▁ssr	-15394
▁stz	-15395
▁sug	-15396
▁sum	-15397
▁svy	-15398
▁sxi	-15399
▁szg	-15400
▁szy	-15401
▁tcf	-15402
▁tdb	-15403
▁tff	-15404
▁tfj	-15405
▁tfq	-15406
▁tfs	-15407
▁thp	-15408
▁thr	-15409
▁tji	-15410
▁tlb	-15411
▁tmz	-15412
▁tnf	-15413
▁tnj	-15414
▁toj	-15415
▁toy	-15416
▁tqj	-15417
▁ttw	-15418
▁tus	-15419
▁tvi	-15420
▁tvm	-15421
▁tvq	-15422
▁twa	-15423
▁txi	-15424
▁txj	-15425
▁txs	-15426
▁uag	-15427
▁ubl	-15428
▁ubz	-15429
▁uem	-15430
▁ufj	-15431
▁uhi	-15432
▁uhr	-15433
▁uhw	-15434
▁uia	-15435
▁ukf	-15436
▁ulm	-15437
▁uls	-15438
▁uly	-15439
▁umw	-15440
▁una	-15441
▁ung	-15442
▁uni	-15443
▁unp	-15444
▁uoy	-15445
▁urw	-15446
▁uts	-15447
▁uub	-15448
▁uva	-15449
▁uwr	-15450
▁uxw	-15451
▁uza	-15452
▁vaf	-15453
▁vbj	-15454
▁vbv	-15455
▁vek	-15456
▁veq	-15457
▁vfr	-15458
▁vfz	-15459
▁vgn	-15460
▁vgr	-15461
▁vhi	-15462
▁vhu	-15463
▁vik	-15464
▁vjf	-15465
▁vjy	-15466
▁vlp	-15467
▁vqa	-15468
▁vsi	-15469
▁vty	-15470
▁vvg	-15471
▁vvs	-15472
▁vxr	-15473
▁vzr	-15474
▁vzy	-15475
▁war	-15476
▁wbf	-15477
▁wea	-15478
▁wfe	-15479
▁wgx	-15480
▁wkm	-15481
▁wms	-15482
▁wmw	-15483
▁wnj	-15484
▁wpe	-15485
▁wsm	-15486
▁wss	-15487
▁wuw	-15488
▁wvi	-15489
▁wxb	-15490
▁wxm	-15491
▁wxp	-15492
▁wxs	-15493
▁wyz	-15494
▁wza	-15495
▁xaw	-15496
▁xcg	-15497
▁xdb	-15498
▁xgp	-15499
▁xik	-15500
▁xjj	-15501
▁xjk	-15502
▁xka	-15503
▁xki	-15504
▁xkz	-15505
▁xnm	-15506
▁xny	-15507
▁xom	-15508
▁xop	-15509
▁xpe	-15510
▁xqi	-15511
▁xuy	-15512
▁xvj	-15513
▁xvw	-15514
▁xwi	-15515
▁xxr	-15516
▁xym	-15517
▁xzf	-15518
▁xzj	-15519
▁ydf	-15520
▁ydy	-15521
▁yes	-15522
▁yew	-15523
▁yfi	-15524
▁ygj	-15525
▁yhg	-15526
▁ykz	-15527
▁yls	-15528
▁ynz	-15529
▁yog	-15530
▁yoj	-15531
▁yop	-15532
▁yoy	-15533
▁ypm	-15534
▁yqr	-15535
▁yqs	-15536
▁yqw	-15537
▁ysi	-15538
▁ysr	-15539
▁ysy	-15540
▁yue	-15541
▁ywe	-15542
▁yxg	-15543
▁yxz	-15544
▁yyj	-15545
▁yyy	-15546
▁yzr	-15547
▁zcq	-15548
▁zhe	-15549
▁zjg	-15550
▁zkm	-15551
▁zlg	-15552
▁zmb	-15553
▁zoc	-15554
▁zqj	-15555
▁zqy	-15556
▁zrb	-15557
▁zrw	-15558
▁zti	-15559
▁zup	-15560
▁zur	-15561
▁zvb	-15562
▁zvi	-15563
▁zwi	-15564
▁zxf	-15565
▁zyj	-15566
▁1406	-15567
▁1535	-15568
▁1599	-15569
▁1639	-15570
▁1644	-15571
▁1647	-15572
▁1650	-15573
▁1660	-15574
▁1665	-15575
▁1672	-15576
▁1685	-15577
▁1698	-15578
▁1702	-15579
▁1751	-15580
▁1775	-15581
aax	-15582
amn	-15583
amz	-15584
apv	-15585
ayd	-15586
bal	-15587
bjc	-15588
bju	-15589
bmu	-15590
byh	-15591
fit	-15592
frx	-15593
fzl	-15594
gbv	-15595
gjd	-15596
grl	-15597
gro	-15598
ibn	-15599
iei	-15600
jaq	-15601
jgk	-15602
jjg	-15603
jmm	-15604
jsd	-15605
jzy	-15606
lmn	-15607
mzb	-15608
pah	-15609
psv	-15610
pwq	-15611
ref	-15612
rel	-15613
rft	-15614
rgl	-15615
riv	-15616
rjb	-15617
rjf	-15618
rjy	-15619
rme	-15620
rsg	-15621
saa	-15622
saf	-15623
say	-15624
sml	-15625
smz	-15626
spq	-15627
ssx	-15628
tkx	-15629
wgk	-15630
wgq	-15631
wjp	-15632
wmu	-15633
wph	-15634
wry	-15635
wzu	-15636
wzz	-15637
yao	-15638
ybx	-15639
ygc	-15640
ygu	-15641
yig	-15642
yru	-15643
ywn	-15644
yzh	-15645
yzp	-15646
zeb	-15647
zes	-15648
zew	-15649
zil	-15650
zpu	-15651
zwc	-15652
▁aba	-15653
▁adi	-15654
▁ady	-15655
▁aeg	-15656
▁afw	-15657
▁ahy	-15658
▁aiz	-15659
▁ake	-15660
▁akw	-15661
▁alb	-15662
▁amp	-15663
▁ane	-15664
▁aog	-15665
▁aot	-15666
▁aow	-15667
▁atk	-15668
▁aty	-15669
▁avg	-15670
▁avj	-15671
▁awa	-15672
▁axp	-15673
▁bdp	-15674
▁bdr	-15675
▁bdz	-15676
▁beb	-15677
▁bey	-15678
▁bfs	-15679
▁bgw	-15680
▁bgz	-15681
▁bhs	-15682
▁bif	-15683
▁biv	-15684
▁biw	-15685
▁bjg	-15686
▁bkf	-15687
▁bkm	-15688
▁bkr	-15689
▁bks	-15690
▁bmf	-15691
▁bni	-15692
▁boe	-15693
▁bof	-15694
▁bog	-15695
▁boy	-15696
▁boz	-15697
▁bpe	-15698
▁bpv	-15699
▁bqm	-15700
▁bsf	-15701
▁btg	-15702
▁bui	-15703
▁bur	-15704
▁bvf	-15705
▁bvi	-15706
▁bvz	-15707
▁bwi	-15708
▁bwj	-15709
▁bxg	-15710
▁bxm	-15711
▁byw	-15712
▁bzj	-15713
▁bzq	-15714
▁cai	-15715
▁ccn	-15716
▁ceb	-15717
▁cgh	-15718
▁cgw	-15719
▁chb	-15720
▁chm	-15721
▁chz	-15722
▁cia	-15723
▁ckw	-15724
▁clb	-15725
▁clh	-15726
▁clt	-15727
▁cms	-15728
▁coa	-15729
▁con	-15730
▁cor	-15731
▁cos	-15732
▁cpf	-15733
▁cqg	-15734
▁cqw	-15735
▁cse	-15736
▁csg	-15737
▁csj	-15738
▁ctr	-15739
▁cug	-15740
▁cuj	-15741
▁cvp	-15742
▁cvw	-15743
▁cwr	-15744
▁cxn	-15745
▁cxy	-15746
▁cyo	-15747
▁czv	-15748
▁dar	-15749
▁dbe	-15750
▁dbf	-15751
▁dbk	-15752
▁dbr	-15753
▁ddm	-15754
▁ddr	-15755
▁dem	-15756
▁dfg	-15757
▁dgy	-15758
▁diy	-15759
▁djo	-15760
▁dka	-15761
▁dlj	-15762
▁dmg	-15763
▁dny	-15764
▁dos	-15765
▁doy	-15766
▁dps	-15767
▁dqb	-15768
▁dqg	-15769
▁dsy	-15770
▁duz	-15771
▁dwa	-15772
▁dwe	-15773
▁dyi	-15774
▁dym	-15775
▁ebf	-15776
▁eei	-15777
▁efz	-15778
▁egi	-15779
▁ehs	-15780
▁ekj	-15781
▁elj	-15782
▁enb	-15783
▁eoa	-15784
▁eod	-15785
▁eoy	-15786
▁eqa	-15787
▁etj	-15788
▁ets	-15789
▁etz	-15790
▁eve	-15791
▁evf	-15792
▁evp	-15793
▁evy	-15794
▁ewb	-15795
▁eyj	-15796
▁ezc	-15797
▁ezw	-15798
▁fap	-15799
▁fcf	-15800
▁fcr	-15801
▁fex	-15802
▁fhg	-15803
▁fhr	-15804
▁fhw	-15805
▁fib	-15806
▁fip	-15807
▁fkm	-15808
▁fkp	-15809
▁fna	-15810
▁fni	-15811
▁fop	-15812
▁fse	-15813
▁fte	-15814
▁ftf	-15815
▁ftm	-15816
▁fue	-15817
▁fvj	-15818
▁fwy	-15819
▁fxs	-15820
▁fys	-15821
▁fzf	-15822
▁gbn	-15823
▁gbv	-15824
▁gcd	-15825
▁gce	-15826
▁gcm	-15827
▁gcw	-15828
▁ghg	-15829
▁gik	-15830
▁gkc	-15831
▁gke	-15832
▁glr	-15833
▁gms	-15834
▁gmy	-15835
▁gne	-15836
▁gnj	-15837
▁goi	-15838
▁gor	-15839
▁goz	-15840
▁gpm	-15841
▁gqf	-15842
▁gtz	-15843
▁gvb	-15844
▁gvm	-15845
▁gwe	-15846
▁gwi	-15847
▁gxy	-15848
▁gza	-15849
▁hcg	-15850
▁hdw	-15851
▁hfr	-15852
▁hfs	-15853
▁hfz	-15854
▁hhp	-15855
▁hia	-15856
▁hkc	-15857
▁hlm	-15858
▁hne	-15859
▁hng	-15860
▁hos	-15861
▁hqi	-15862
▁hql	-15863
▁hqp	-15864
▁hqv	-15865
▁hrq	-15866
▁hry	-15867
▁htb	-15868
▁hti	-15869
▁hts	-15870
▁htw	-15871
▁hum	-15872
▁hus	-15873
▁hva	-15874
▁hww	-15875
▁hxp	-15876
▁iao	-15877
▁iay	-15878
▁ibn	-15879
▁ibs	-15880
▁icz	-15881
▁iew	-15882
▁ife	-15883
▁ihz	-15884
▁iib	-15885
▁iif	-15886
▁iii	-15887
▁ikj	-15888
▁ile	-15889
▁imw	-15890
▁inz	-15891
▁ipl	-15892
▁ipm	-15893
▁iqp	-15894
▁itg	-15895
▁iua	-15896
▁ivj	-15897
▁ivt	-15898
▁iwi	-15899
▁iwj	-15900
▁iwl	-15901
▁ixb	-15902
▁ixu	-15903
▁ixw	-15904
▁iys	-15905
▁jaa	-15906
▁jaf	-15907
▁jbb	-15908
▁jdg	-15909
▁jeb	-15910
▁jfe	-15911
▁jgi	-15912
▁jgw	-15913
▁jha	-15914
▁jjb	-15915
▁jjy	-15916
▁jmw	-15917
▁jnb	-15918
▁jog	-15919
▁jpe	-15920
▁jpj	-15921
▁jtp	-15922
▁juj	-15923
▁jum	-15924
▁juv	-15925
▁jvq	-15926
▁jvs	-15927
▁jxj	-15928
▁jzr	-15929
▁kaf	-15930
▁kbi	-15931
▁kdn	-15932
▁kgs	-15933
▁kha	-15934
▁kiv	-15935
▁kkr	-15936
▁kmj	-15937
▁kmy	-15938
▁knj	-15939
▁kny	-15940
▁koe	-15941
▁koi	-15942
▁kqj	-15943
▁kqp	-15944
▁kqr	-15945
▁kqw	-15946
▁krw	-15947
▁kte	-15948
▁kug	-15949
▁kvi	-15950
▁kww	-15951
▁kwy	-15952
▁kxg	-15953
▁kyi	-15954
▁lcw	-15955
▁lda	-15956
▁ldg	-15957
▁lew	-15958
▁lgi	-15959
▁lgp	-15960
▁lgw	-15961
▁lhp	-15962
▁lic	-15963
▁lig	-15964
▁lil	-15965
▁ljf	-15966
▁lkb	-15967
▁llj	-15968
▁lmp	-15969
▁lmz	-15970
▁lne	-15971
▁lom	-15972
▁lor	-15973
▁lpr	-15974
▁lqm	-15975
▁lsh	-15976
▁lsp	-15977
▁lte	-15978
▁ltm	-15979
▁ltx	-15980
▁lve	-15981
▁lvj	-15982
▁lxm	-15983
▁lzg	-15984
▁lzn	-15985
▁mcs	-15986
▁meg	-15987
▁mel	-15988
▁mfj	-15989
▁mga	-15990
▁mgf	-15991
▁mhr	-15992
▁mhw	-15993
▁mia	-15994
▁mid	-15995
▁mif	-15996
▁mjj	-15997
▁mke	-15998
▁mkg	-15999
▁mkp	-16000
▁mkr	-16001
▁mmg	-16002
▁mmt	-16003
▁mnm	-16004
▁mny	-16005
▁moq	-16006
▁mpf	-16007
▁msr	-16008
▁msy	-16009
▁msz	-16010
▁mtm	-16011
▁mtp	-16012
▁mui	-16013
▁muw	-16014
▁mwf	-16015
▁mxk	-16016
▁mxp	-16017
▁mxz	-16018
▁mzf	-16019
▁mzy	-16020
▁ncg	-16021
▁ncs	-16022
▁nda	-16023
▁nef	-16024
▁neq	-16025
▁nff	-16026
▁ngp	-16027
▁ngz	-16028
▁nhw	-16029
▁nkp	-16030
▁nlp	-16031
▁nns	-16032
▁nom	-16033
▁nra	-16034
▁ntg	-16035
▁nti	-16036
▁ntp	-16037
▁ntr	-16038
▁nuf	-16039
▁nur	-16040
▁nwe	-16041
▁nxd	-16042
▁nxp	-16043
▁nye	-16044
▁obj	-16045
▁ocr	-16046
▁ocz	-16047
▁odi	-16048
▁odp	-16049
▁oem	-16050
▁ogy	-16051
▁ohp	-16052
▁oip	-16053
▁ojy	-16054
▁okg	-16055
▁okm	-16056
▁onh	-16057
▁onz	-16058
▁ooe	-16059
▁opf	-16060
▁opr	-16061
▁osp	-16062
▁oty	-16063
▁oul	-16064
▁ovz	-16065
▁ows	-16066
▁oxe	-16067
▁oxg	-16068
▁oxs	-16069
▁ozy	-16070
▁pbg	-16071
▁pbp	-16072
▁pby	-16073
▁pch	-16074
▁pcz	-16075
▁pdb	-16076
▁pdf	-16077
▁pey	-16078
▁pff	-16079
▁phf	-16080
▁pij	-16081
▁pip	-16082
▁pjf	-16083
▁pks	-16084
▁pma	-16085
▁png	-16086
▁pnj	-16087
▁pqe	-16088
▁pqv	-16089
▁pts	-16090
▁pty	-16091
▁pvp	-16092
▁pxf	-16093
▁pxi	-16094
▁pzb	-16095
▁pzf	-16096
▁qaf	-16097
▁qay	-16098
▁qcy	-16099
▁qfb	-16100
▁qfx	-16101
▁qgi	-16102
▁qkb	-16103
▁qkz	-16104
▁qly	-16105
▁qmo	-16106
▁qnp	-16107
▁qop	-16108
▁qow	-16109
▁qpi	-16110
▁qpy	-16111
▁qrb	-16112
▁qtm	-16113
▁qvt	-16114
▁qxb	-16115
▁qxf	-16116
▁qxg	-16117
▁rab	-16118
▁raf	-16119
▁rbp	-16120
▁rbs	-16121
▁rcg	-16122
▁rdi	-16123
▁rdp	-16124
▁rek	-16125
▁rem	-16126
▁rfs	-16127
▁rhe	-16128
▁rhf	-16129
▁rky	-16130
▁rmt	-16131
▁rng	-16132
▁rni	-16133
▁rnw	-16134
▁rnz	-16135
▁rob	-16136
▁roi	-16137
▁rom	-16138
▁rqv	-16139
▁rrp	-16140
▁rrw	-16141
▁rtp	-16142
▁rue	-16143
▁rvw	-16144
▁rvz	-16145
▁rwm	-16146
▁rwr	-16147
▁rxp	-16148
▁rxy	-16149
▁ryg	-16150
▁rzp	-16151
▁sbz	-16152
▁sce	-16153
▁scg	-16154
▁sci	-16155
▁sda	-16156
▁sdj	-16157
▁sem	-16158
▁sfa	-16159
▁sfe	-16160
▁shz	-16161
▁sin	-16162
▁sjs	-16163
▁skb	-16164
▁sls	-16165
▁smg	-16166
▁sms	-16167
▁snj	-16168
▁spb	-16169
▁ssj	-16170
▁ssy	-16171
▁stg	-16172
▁stw	-16173
▁suc	-16174
▁suj	-16175
▁suk	-16176
▁svr	-16177
▁svs	-16178
▁sxa	-16179
▁syd	-16180
▁szf	-16181
▁tcb	-16182
▁tcy	-16183
▁tde	-16184
▁tdi	-16185
▁tfp	-16186
▁tga	-16187
▁tgf	-16188
▁tgm	-16189
▁tgn	-16190
▁thb	-16191
▁tho	-16192
▁tig	-16193
▁tij	-16194
▁tkf	-16195
▁tkj	-16196
▁tlm	-16197
▁tlr	-16198
▁tmf	-16199
▁tnb	-16200
▁tnz	-16201
▁toz	-16202
▁tpb	-16203
▁tqd	-16204
▁trj	-16205
▁tti	-16206
▁tub	-16207
▁tuj	-16208
▁tve	-16209
▁tvr	-16210
▁twg	-16211
▁twm	-16212
▁txo	-16213
▁tyj	-16214
▁tzf	-16215
▁ucb	-16216
▁udj	-16217
▁ufr	-16218
▁ugj	-16219
▁ugy	-16220
▁uhe	-16221
▁uij	-16222
▁uip	-16223
▁ujb	-16224
▁ujf	-16225
▁ujp	-16226
▁ujy	-16227
▁ukb	-16228
▁ukj	-16229
▁ukz	-16230
▁ums	-16231
▁unw	-16232
▁uoa	-16233
▁uor	-16234
▁upe	-16235
▁upl	-16236
▁uqj	-16237
▁urs	-16238
▁usk	-16239
▁usy	-16240
▁utb	-16241
▁uui	-16242
▁uzj	-16243
▁vci	-16244
▁vcp	-16245
▁vdy	-16246
▁vfh	-16247
▁vhg	-16248
▁via	-16249
▁vki	-16250
▁vkr	-16251
▁vlr	-16252
▁vlw	-16253
▁vlz	-16254
▁vnj	-16255
▁vor	-16256
▁vos	-16257
▁voz	-16258
▁vpj	-16259
▁vqe	-16260
▁vqp	-16261
▁vrd	-16262
▁vsg	-16263
▁vtb	-16264
▁vtv	-16265
▁vtz	-16266
▁vub	-16267
▁vuf	-16268
▁vuy	-16269
▁vvf	-16270
▁vvj	-16271
▁vxm	-16272
▁vzb	-16273
▁wat	-16274
▁wbw	-16275
▁wek	-16276
▁wff	-16277
▁whw	-16278
▁whz	-16279
▁wjr	-16280
▁wkt	-16281
▁wlf	-16282
▁wlp	-16283
▁wmf	-16284
▁wmj	-16285
▁wof	-16286
▁wqw	-16287
▁wqz	-16288
▁wsp	-16289
▁wsy	-16290
▁wtp	-16291
▁wtq	-16292
▁wus	-16293
▁wyf	-16294
▁wyo	-16295
▁wys	-16296
▁wzf	-16297
▁xbo	-16298
▁xbp	-16299
▁xci	-16300
▁xcz	-16301
▁xdy	-16302
▁xej	-16303
▁xgx	-16304
▁xhw	-16305
▁xig	-16306
▁xiy	-16307
▁xla	-16308
▁xlf	-16309
▁xmg	-16310
▁xor	-16311
▁xpj	-16312
▁xpk	-16313
▁xpp	-16314
▁xqb	-16315
▁xqp	-16316
▁xrr	-16317
▁xsy	-16318
▁xua	-16319
▁xuw	-16320
▁xvf	-16321
▁xvm	-16322
▁xvp	-16323
▁xxt	-16324
▁xxw	-16325
▁ybm	-16326
▁ycp	-16327
▁yds	-16328
▁ydw	-16329
▁yfy	-16330
▁yga	-16331
▁yhp	-16332
▁yiv	-16333
▁yiz	-16334
▁yjj	-16335
▁ykb	-16336
▁yks	-16337
▁yla	-16338
▁yli	-16339
▁ymg	-16340
▁ynp	-16341
▁ypw	-16342
▁yqj	-16343
▁yqn	-16344
▁yrf	-16345
▁yrk	-16346
▁yug	-16347
▁yuy	-16348
▁ywb	-16349
▁yyf	-16350
▁yza	-16351
▁yzf	-16352
▁zag	-16353
▁zar	-16354
▁zbb	-16355
▁zcz	-16356
▁zdp	-16357
▁zej	-16358
▁zfj	-16359
▁zfm	-16360
▁zhf	-16361
▁zhn	-16362
▁zhw	-16363
▁zif	-16364
▁zih	-16365
▁zjb	-16366
▁zle	-16367
▁zlf	-16368
▁zly	-16369
▁zmi	-16370
▁zmy	-16371
▁zna	-16372
▁znm	-16373
▁zoj	-16374
▁zpj	-16375
▁zqf	-16376
▁zsi	-16377
▁zuf	-16378
▁zvw	-16379
▁zvy	-16380
▁zxa	-16381
▁zxb	-16382
▁zxm	-16383
▁zxr	-16384
▁zxw	-16385
▁zxx	-16386
▁zye	-16387
▁zzy	-16388
▁1584	-16389
▁1594	-16390
▁1615	-16391
▁1643	-16392
▁1656	-16393
▁1664	-16394
▁1717	-16395
▁1722	-16396
▁1726	-16397
▁1791	-16398
aaw	-16399
abk	-16400
agl	-16401
ait	-16402
aiz	-16403
ami	-16404
amp	-16405
apl	-16406
awd	-16407
azl	-16408
azr	-16409
bjt	-16410
bmx	-16411
byu	-16412
fgd	-16413
fmn	-16414
fst	-16415
fyh	-16416
fyk	-16417
gen	-16418
ggk	-16419
gjk	-16420
gjs	-16421
gjx	-16422
gyx	-16423
hlq	-16424
ief	-16425
iek	-16426
ifo	-16427
igu	-16428
imm	-16429
iyq	-16430
jag	-16431
jes	-16432
jew	-16433
jma	-16434
jmr	-16435
jrs	-16436
jzl	-16437
jzm	-16438
mbc	-16439
nou	-16440
ntn	-16441
pav	-16442
pgc	-16443
pgk	-16444
pru	-16445
pwd	-16446
pzc	-16447
pzx	-16448
rah	-16449
ren	-16450
rep	-16451
rfd	-16452
rgc	-16453
rin	-16454
rio	-16455
rmd	-16456
rmg	-16457
rmx	-16458
rrs	-16459
sag	-16460
san	-16461
sap	-16462
sih	-16463
sij	-16464
siv	-16465
smf	-16466
swx	-16467
szi	-16468
szl	-16469
wad	-16470
wax	-16471
wju	-16472
wjx	-16473
wma	-16474
wpl	-16475
wrq	-16476
wsq	-16477
wzd	-16478
yan	-16479
yay	-16480
ygt	-16481
yiu	-16482
yiw	-16483
yrt	-16484
ywq	-16485
yzq	-16486
zen	-16487
zgq	-16488
ziw	-16489
zjb	-16490
zpq	-16491
zzd	-16492
zzs	-16493
zzy	-16494
▁abf	-16495
▁abv	-16496
▁acm	-16497
▁acp	-16498
▁aeb	-16499
▁afg	-16500
▁afi	-16501
▁ags	-16502
▁agy	-16503
▁aha	-16504
▁ahg	-16505
▁ahr	-16506
▁ajy	-16507
▁ako	-16508
▁amy	-16509
▁ans	-16510
▁anw	-16511
▁any	-16512
▁aph	-16513
▁aqw	-16514
▁arb	-16515
▁atb	-16516
▁avt	-16517
▁avz	-16518
▁awj	-16519
▁axa	-16520
▁axc	-16521
▁axi	-16522
▁axz	-16523
▁ayf	-16524
▁aza	-16525
▁aze	-16526
▁azv	-16527
▁bbe	-16528
▁bhk	-16529
▁bhw	-16530
▁bjb	-16531
▁bkx	-16532
▁blw	-16533
▁bnw	-16534
▁bny	-16535
▁bob	-16536
▁bpo	-16537
▁bps	-16538
▁bse	-16539
▁bsm	-16540
▁bta	-16541
▁bte	-16542
▁bti	-16543
▁btj	-16544
▁btp	-16545
▁btr	-16546
▁bue	-16547
▁bul	-16548
▁bve	-16549
▁bvp	-16550
▁bwf	-16551
▁bxi	-16552
▁caf	-16553
▁cap	-16554
▁cbz	-16555
▁cdl	-16556
▁cdy	-16557
▁cey	-16558
▁cfb	-16559
▁cfw	-16560
▁cgy	-16561
▁chh	-16562
▁chj	-16563
▁cjt	-16564
▁ckm	-16565
▁clc	-16566
▁cmg	-16567
▁cmw	-16568
▁cop	-16569
▁cot	-16570
▁cpb	-16571
▁cpp	-16572
▁cpy	-16573
▁cqb	-16574
▁crb	-16575
▁crp	-16576
▁csu	-16577
▁ctp	-16578
▁cuo	-16579
▁cvg	-16580
▁cwi	-16581
▁cxe	-16582
▁cxm	-16583
▁dcr	-16584
▁dcw	-16585
▁ddf	-16586
▁dft	-16587
▁dgb	-16588
▁dhj	-16589
▁dia	-16590
▁dij	-16591
▁djg	-16592
▁djn	-16593
▁dlx	-16594
▁dmb	-16595
▁dml	-16596
▁dnc	-16597
▁dnp	-16598
▁dom	-16599
▁dqs	-16600
▁drg	-16601
▁dso	-16602
▁dti	-16603
▁dtp	-16604
▁dvi	-16605
▁dvm	-16606
▁dvz	-16607
▁dwi	-16608
▁dxa	-16609
▁dxe	-16610
▁dxg	-16611
▁dyj	-16612
▁dzr	-16613
▁eai	-16614
▁ebm	-16615
▁ebs	-16616
▁edf	-16617
▁eds	-16618
▁eef	-16619
▁eey	-16620
▁efl	-16621
▁egp	-16622
▁eiy	-16623
▁ejp	-16624
▁emg	-16625
▁emj	-16626
▁enc	-16627
▁eng	-16628
▁eob	-16629
▁eof	-16630
▁eop	-16631
▁eqg	-16632
▁eqr	-16633
▁erh	-16634
▁erx	-16635
▁esq	-16636
▁eta	-16637
▁etm	-16638
▁etr	-16639
▁evn	-16640
▁eyp	-16641
▁fci	-16642
▁fdp	-16643
▁fft	-16644
▁fgr	-16645
▁fiz	-16646
▁fjh	-16647
▁fji	-16648
▁fjj	-16649
▁fkb	-16650
▁flm	-16651
▁fnf	-16652
▁fnp	-16653
▁foe	-16654
▁foq	-16655
▁fpp	-16656
▁fqo	-16657
▁fqr	-16658
▁fqw	-16659
▁frw	-16660
▁fta	-16661
▁ftg	-16662
▁fug	-16663
▁fuj	-16664
▁fum	-16665
▁fuo	-16666
▁fuw	-16667
▁fxf	-16668
▁fzb	-16669
▁fzg	-16670
▁gcn	-16671
▁gdi	-16672
▁gdq	-16673
▁gds	-16674
▁geq	-16675
▁gfe	-16676
▁gfg	-16677
▁gge	-16678
▁gha	-16679
▁ghb	-16680
▁ght	-16681
▁giw	-16682
▁gjw	-16683
▁gkh	-16684
▁gkm	-16685
▁glz	-16686
▁gmp	-16687
▁gnr	-16688
▁gnw	-16689
▁gpa	-16690
▁gpf	-16691
▁gpj	-16692
▁gqb	-16693
▁gqp	-16694
▁grp	-16695
▁gsb	-16696
▁gtr	-16697
▁gts	-16698
▁guw	-16699
▁guy	-16700
▁guz	-16701
▁gwp	-16702
▁gxi	-16703
▁gxr	-16704
▁gxu	-16705
▁gya	-16706
▁gzg	-16707
▁hcw	-16708
▁hdf	-16709
▁her	-16710
▁hfe	-16711
▁hga	-16712
▁hgf	-16713
▁hgm	-16714
▁hhz	-16715
▁hkb	-16716
▁hky	-16717
▁hlg	-16718
▁hmg	-16719
▁how	-16720
▁hqw	-16721
▁hsf	-16722
▁htz	-16723
▁huz	-16724
▁hxa	-16725
▁hxf	-16726
▁hxw	-16727
▁hyc	-16728
▁hym	-16729
▁hyp	-16730
▁icp	-16731
▁idl	-16732
▁ids	-16733
▁ieg	-16734
▁igf	-16735
▁igs	-16736
▁ihi	-16737
▁ijy	-16738
▁ikb	-16739
▁ike	-16740
▁ikw	-16741
▁iky	-16742
▁ily	-16743
▁iny	-16744
▁ioj	-16745
▁ips	-16746
▁ipw	-16747
▁irp	-16748
▁iss	-16749
▁itj	-16750
▁ivz	-16751
▁jbg	-16752
▁jdz	-16753
▁jgz	-16754
▁jhz	-16755
▁jiu	-16756
▁jkb	-16757
▁jkp	-16758
▁jlj	-16759
▁jlw	-16760
▁jnf	-16761
▁jow	-16762
▁jpm	-16763
▁jpw	-16764
▁jqt	-16765
▁jqy	-16766
▁jrc	-16767
▁jrp	-16768
▁jsp	-16769
▁jti	-16770
▁jva	-16771
▁jvo	-16772
▁jvr	-16773
▁jxb	-16774
▁jxw	-16775
▁kag	-16776
▁kai	-16777
▁kay	-16778
▁kbs	-16779
▁kcm	-16780
▁kdw	-16781
▁kef	-16782
▁kfr	-16783
▁kgb	-16784
▁kgh	-16785
▁kgm	-16786
▁kif	-16787
▁kis	-16788
▁kjj	-16789
▁klq	-16790
▁klz	-16791
▁kmp	-16792
▁kmw	-16793
▁kne	-16794
▁kol	-16795
▁kos	-16796
▁kot	-16797
▁kpe	-16798
▁kqh	-16799
▁kqs	-16800
▁kqt	-16801
▁kqy	-16802
▁kqz	-16803
▁krz	-16804
▁ktc	-16805
▁kud	-16806
▁kuf	-16807
▁kvy	-16808
▁kwd	-16809
▁kwf	-16810
▁kxv	-16811
▁kya	-16812
▁kzq	-16813
▁laf	-16814
▁lce	-16815
▁lcm	-16816
▁lcs	-16817
▁ldn	-16818
▁ldr	-16819
▁ldw	-16820
▁ldz	-16821
▁lej	-16822
▁lhb	-16823
▁lhj	-16824
▁lia	-16825
▁ljl	-16826
▁lli	-16827
▁lmt	-16828
▁lmw	-16829
▁lmy	-16830
▁lnb	-16831
▁lob	-16832
▁lpb	-16833
▁lrs	-16834
▁lta	-16835
▁ltz	-16836
▁lub	-16837
▁luz	-16838
▁lvw	-16839
▁lyb	-16840
▁lyp	-16841
▁mab	-16842
▁mbb	-16843
▁mbp	-16844
▁mbz	-16845
▁mcb	-16846
▁mcg	-16847
▁mcm	-16848
▁mdi	-16849
▁mdw	-16850
▁mej	-16851
▁meo	-16852
▁mep	-16853
▁mes	-16854
▁mfi	-16855
▁mfy	-16856
▁mfz	-16857
▁mhb	-16858
▁mkb	-16859
▁mmz	-16860
▁mnr	-16861
▁mos	-16862
▁mov	-16863
▁mpb	-16864
▁msa	-16865
▁msg	-16866
▁msn	-16867
▁mtb	-16868
▁mtw	-16869
▁mut	-16870
▁mwb	-16871
▁mxd	-16872
▁myb	-16873
▁mzj	-16874
▁nag	-16875
▁nbx	-16876
▁ncr	-16877
▁ndb	-16878
▁ngk	-16879
▁ngs	-16880
▁nha	-16881
▁nhe	-16882
▁nhi	-16883
▁nhj	-16884
▁niz	-16885
▁nkf	-16886
▁nkh	-16887
▁nkk	-16888
▁nkm	-16889
▁nkz	-16890
▁nls	-16891
▁nmp	-16892
▁nmx	-16893
▁nnm	-16894
▁nnw	-16895
▁nof	-16896
▁nps	-16897
▁npz	-16898
▁nrd	-16899
▁nrp	-16900
▁nrw	-16901
▁nts	-16902
▁nwi	-16903
▁nxv	-16904
▁nxz	-16905
▁oaf	-16906
▁oas	-16907
▁obe	-16908
▁obf	-16909
▁odf	-16910
▁odw	-16911
▁ody	-16912
▁ofi	-16913
▁ogb	-16914
▁ogv	-16915
▁ohm	-16916
▁oig	-16917
▁oij	-16918
▁oji	-16919
▁ojo	-16920
▁oke	-16921
▁okf	-16922
▁olf	-16923
▁ols	-16924
▁olx	-16925
▁olz	-16926
▁omw	-16927
▁oop	-16928
▁oqs	-16929
▁orz	-16930
▁otw	-16931
▁ouo	-16932
▁ous	-16933
▁owr	-16934
▁paa	-16935
▁pah	-16936
▁pay	-16937
▁pbf	-16938
▁pdo	-16939
▁pew	-16940
▁pfx	-16941
▁pgf	-16942
▁pgx	-16943
▁pil	-16944
▁ple	-16945
▁plj	-16946
▁plp	-16947
▁pmw	-16948
▁poc	-16949
▁por	-16950
▁pqn	-16951
▁pqz	-16952
▁prs	-16953
▁psg	-16954
▁psp	-16955
▁psy	-16956
▁ptz	-16957
▁pua	-16958
▁pug	-16959
▁pve	-16960
▁pvz	-16961
▁pxb	-16962
▁pxj	-16963
▁pyj	-16964
▁pzg	-16965
▁qbx	-16966
▁qcg	-16967
▁qci	-16968
▁qcs	-16969
▁qcz	-16970
▁qde	-16971
▁qez	-16972
▁qfe	-16973
▁qfm	-16974
▁qft	-16975
▁qha	-16976
▁qkg	-16977
▁qko	-16978
▁qlg	-16979
▁qli	-16980
▁qml	-16981
▁qne	-16982
▁qrp	-16983
▁qsw	-16984
▁qta	-16985
▁qtf	-16986
▁qtg	-16987
▁qti	-16988
▁qto	-16989
▁quw	-16990
▁qvb	-16991
▁qwa	-16992
▁qws	-16993
▁qxm	-16994
▁qxt	-16995
▁qxz	-16996
▁qyj	-16997
▁qyk	-16998
▁qzg	-16999
▁qzr	-17000
▁rhb	-17001
▁rhs	-17002
▁rhv	-17003
▁rjf	-17004
▁rkj	-17005
▁rlb	-17006
▁rli	-17007
▁rlj	-17008
▁rlz	-17009
▁rmb	-17010
▁rmy	-17011
▁rnj	-17012
▁rny	-17013
▁roe	-17014
▁rog	-17015
▁rpb	-17016
▁rpf	-17017
▁rpi	-17018
▁rqt	-17019
▁rrs	-17020
▁rsi	-17021
▁rte	-17022
▁rtg	-17023
▁rtj	-17024
▁rtz	-17025
▁ruo	-17026
▁rxj	-17027
▁rxu	-17028
▁ryj	-17029
▁sal	-17030
▁sbm	-17031
▁sbw	-17032
▁sdt	-17033
▁seg	-17034
▁sew	-17035
▁sge	-17036
▁sgf	-17037
▁shd	-17038
▁shj	-17039
▁shy	-17040
▁sif	-17041
▁sjp	-17042
▁ske	-17043
▁ski	-17044
▁skz	-17045
▁slf	-17046
▁snw	-17047
▁soj	-17048
▁som	-17049
▁spn	-17050
▁sqn	-17051
▁ste	-17052
▁suf	-17053
▁suo	-17054
▁sve	-17055
▁svg	-17056
▁svm	-17057
▁swo	-17058
▁swp	-17059
▁sxf	-17060
▁sxm	-17061
▁syw	-17062
▁syz	-17063
▁szb	-17064
▁taw	-17065
▁tby	-17066
▁tcg	-17067
▁tdj	-17068
▁ten	-17069
▁tep	-17070
▁tes	-17071
▁tet	-17072
▁tgk	-17073
▁thy	-17074
▁tjf	-17075
▁tke	-17076
▁tki	-17077
▁tnx	-17078
▁tob	-17079
▁tor	-17080
▁tow	-17081
▁tqm	-17082
▁tqp	-17083
▁tso	-17084
▁twe	-17085
▁txa	-17086
▁txm	-17087
▁txw	-17088
▁txy	-17089
▁uaq	-17090
▁ucv	-17091
▁ueb	-17092
▁ufe	-17093
▁uff	-17094
▁ufp	-17095
▁ujw	-17096
▁ulj	-17097
▁ulk	-17098
▁unj	-17099
▁unz	-17100
▁uom	-17101
▁ups	-17102
▁upv	-17103
▁uqf	-17104
▁url	-17105
▁use	-17106
▁utg	-17107
▁uug	-17108
▁uvy	-17109
▁uvz	-17110
▁uwp	-17111
▁uws	-17112
▁uyj	-17113
▁uyy	-17114
▁vbf	-17115
▁vbm	-17116
▁vbn	-17117
▁vcg	-17118
▁vdf	-17119
▁vee	-17120
▁vem	-17121
▁vew	-17122
▁vga	-17123
▁vhj	-17124
▁vic	-17125
▁vif	-17126
▁vjp	-17127
▁vkf	-17128
▁vlf	-17129
▁vli	-17130
▁vlu	-17131
▁vmw	-17132
▁voa	-17133
▁vqr	-17134
▁vsp	-17135
▁vtf	-17136
▁vtg	-17137
▁vwy	-17138
▁vxb	-17139
▁vxs	-17140
▁wav	-17141
▁way	-17142
▁wba	-17143
▁wce	-17144
▁wcj	-17145
▁wcp	-17146
▁wdp	-17147
▁wdq	-17148
▁wdr	-17149
▁weo	-17150
▁wew	-17151
▁wfm	-17152
▁wgf	-17153
▁whg	-17154
▁whq	-17155
▁whs	-17156
▁wjf	-17157
▁wkf	-17158
▁wkg	-17159
▁wkh	-17160
▁wkj	-17161
▁wky	-17162
▁wls	-17163
▁wmb	-17164
▁wmt	-17165
▁wnk	-17166
▁woe	-17167
▁woi	-17168
▁wpp	-17169
▁wpv	-17170
▁wqb	-17171
▁wqe	-17172
▁wre	-17173
▁wtc	-17174
▁wtg	-17175
▁wts	-17176
▁wua	-17177
▁wui	-17178
▁wwy	-17179
▁wzy	-17180
▁xbw	-17181
▁xdd	-17182
▁xea	-17183
▁xeb	-17184
▁xen	-17185
▁xep	-17186
▁xfh	-17187
▁xfw	-17188
▁xga	-17189
▁xiz	-17190
▁xji	-17191
▁xjw	-17192
▁xkg	-17193
▁xkm	-17194
▁xnh	-17195
▁xqf	-17196
▁xqr	-17197
▁xqs	-17198
▁xrh	-17199
▁xsf	-17200
▁xsp	-17201
▁xtf	-17202
▁xtq	-17203
▁xuf	-17204
▁xup	-17205
▁xur	-17206
▁xus	-17207
▁xvi	-17208
▁xwd	-17209
▁xwl	-17210
▁xxb	-17211
▁xys	-17212
▁xyy	-17213
▁xza	-17214
▁xzi	-17215
▁xzw	-17216
▁yai	-17217
▁ybe	-17218
▁ybg	-17219
▁ybn	-17220
▁ybs	-17221
▁ycg	-17222
▁ycm	-17223
▁yef	-17224
▁yem	-17225
▁yff	-17226
▁ygw	-17227
▁yia	-17228
▁yjy	-17229
▁ykx	-17230
▁yky	-17231
▁ylf	-17232
▁ylv	-17233
▁ymr	-17234
▁ymz	-17235
▁yqm	-17236
▁yqp	-17237
▁yrb	-17238
▁yrg	-17239
▁ysg	-17240
▁yww	-17241
▁yxn	-17242
▁yxr	-17243
▁yxw	-17244
▁yyr	-17245
▁yzj	-17246
▁zab	-17247
▁zcy	-17248
▁zfw	-17249
▁zgm	-17250
▁zgz	-17251
▁zhi	-17252
▁zkf	-17253
▁zkg	-17254
▁zla	-17255
▁zlj	-17256
▁zlw	-17257
▁znt	-17258
▁znv	-17259
▁zob	-17260
▁zok	-17261
▁zos	-17262
▁zrl	-17263
▁ztm	-17264
▁ztp	-17265
▁zub	-17266
▁zul	-17267
▁zvo	-17268
▁zvr	-17269
▁zwf	-17270
▁zxg	-17271
▁zxh	-17272
▁zxp	-17273
▁1616	-17274
▁1674	-17275
▁1701	-17276
▁1707	-17277
▁1709	-17278
▁1727	-17279
▁1730	-17280
▁1755	-17281
▁1766	-17282
▁657+6	-17283
▁978+6	-17284
abc	-17285
aej	-17286
agd	-17287
amj	-17288
awo	-17289
azu	-17290
bgx	-17291
bjh	-17292
bjo	-17293
bml	-17294
bro	-17295
eem	-17296
efo	-17297
faj	-17298
fau	-17299
ffv	-17300
fil	-17301
fpd	-17302
ims	-17303
iyn	-17304
jar	-17305
jbd	-17306
jei	-17307
jej	-17308
jro	-17309
jsl	-17310
jwq	-17311
jzi	-17312
jzo	-17313
jzw	-17314
mbt	-17315
pen	-17316
pgn	-17317
pgu	-17318
pmd	-17319
psc	-17320
pyq	-17321
pyu	-17322
rac	-17323
rek	-17324
rmb	-17325
rms	-17326
rrp	-17327
ryv	-17328
rzf	-17329
rzr	-17330
sif	-17331
sip	-17332
sit	-17333
siw	-17334
sjq	-17335
smy	-17336
srv	-17337
swl	-17338
sze	-17339
szs	-17340
szy	-17341
wal	-17342
wex	-17343
wjk	-17344
wjq	-17345
wmc	-17346
wmk	-17347
wrk	-17348
wwd	-17349
wzn	-17350
yag	-17351
yij	-17352
ysv	-17353
ywo	-17354
yzx	-17355
zih	-17356
zwo	-17357
zwx	-17358
zzj	-17359
▁aaf	-17360
▁aca	-17361
▁acg	-17362
▁acz	-17363
▁adj	-17364
▁aej	-17365
▁afe	-17366
▁aff	-17367
▁aga	-17368
▁age	-17369
▁agz	-17370
▁ahh	-17371
▁aib	-17372
▁aip	-17373
▁ajf	-17374
▁ajg	-17375
▁ajr	-17376
▁akk	-17377
▁ale	-17378
▁all	-17379
▁aly	-17380
▁anh	-17381
▁ann	-17382
▁arj	-17383
▁ase	-17384
▁asf	-17385
▁aub	-17386
▁avf	-17387
▁avy	-17388
▁awb	-17389
▁azb	-17390
▁bbi	-17391
▁bce	-17392
▁bda	-17393
▁bdw	-17394
▁bfd	-17395
▁bfe	-17396
▁bfm	-17397
▁bha	-17398
▁bjy	-17399
▁bki	-17400
▁bkp	-17401
▁bla	-17402
▁blm	-17403
▁bmo	-17404
▁bmw	-17405
▁bna	-17406
▁bnb	-17407
▁bnm	-17408
▁bnv	-17409
▁bpj	-17410
▁bqe	-17411
▁bqj	-17412
▁bsg	-17413
▁btz	-17414
▁bws	-17415
▁bxn	-17416
▁cab	-17417
▁cbg	-17418
▁cfg	-17419
▁chf	-17420
▁cis	-17421
▁cjf	-17422
▁ckr	-17423
▁cob	-17424
▁cof	-17425
▁csh	-17426
▁ctt	-17427
▁cue	-17428
▁cvz	-17429
▁cww	-17430
▁cye	-17431
▁czo	-17432
▁dce	-17433
▁dcf	-17434
▁dcx	-17435
▁dev	-17436
▁dfp	-17437
▁dhi	-17438
▁dhp	-17439
▁dke	-17440
▁dlo	-17441
▁dlp	-17442
▁dmh	-17443
▁dmy	-17444
▁dnw	-17445
▁dqo	-17446
▁dqz	-17447
▁drp	-17448
▁dsd	-17449
▁dsl	-17450
▁dun	-17451
▁dvs	-17452
▁dwp	-17453
▁dwt	-17454
▁dxt	-17455
▁dys	-17456
▁dzg	-17457
▁ebr	-17458
▁ece	-17459
▁ecg	-17460
▁eem	-17461
▁efa	-17462
▁egf	-17463
▁egg	-17464
▁egl	-17465
▁ehm	-17466
▁eib	-17467
▁eiu	-17468
▁ekb	-17469
▁eku	-17470
▁elc	-17471
▁emw	-17472
▁emy	-17473
▁eog	-17474
▁epl	-17475
▁epn	-17476
▁epz	-17477
▁eqy	-17478
▁ern	-17479
▁ety	-17480
▁evg	-17481
▁evi	-17482
▁evj	-17483
▁evv	-17484
▁ewo	-17485
▁eww	-17486
▁exf	-17487
▁exs	-17488
▁ezr	-17489
▁fbr	-17490
▁fcb	-17491
▁fce	-17492
▁fco	-17493
▁fdc	-17494
▁few	-17495
▁ffj	-17496
▁ffm	-17497
▁fhj	-17498
▁fhl	-17499
▁fic	-17500
▁fki	-17501
▁fkj	-17502
▁fkn	-17503
▁fll	-17504
▁fma	-17505
▁fms	-17506
▁fnm	-17507
▁fpr	-17508
▁fpz	-17509
▁frp	-17510
▁fsf	-17511
▁fsg	-17512
▁fvq	-17513
▁fwb	-17514
▁fxe	-17515
▁fxq	-17516
▁fyd	-17517
▁fzk	-17518
▁gag	-17519
▁gby	-17520
▁gcz	-17521
▁gde	-17522
▁geb	-17523
▁gii	-17524
▁gjk	-17525
▁gjp	-17526
▁gkr	-17527
▁gkz	-17528
▁glp	-17529
▁glw	-17530
▁gly	-17531
▁gmb	-17532
▁gon	-17533
▁goy	-17534
▁gpe	-17535
▁gph	-17536
▁gpz	-17537
▁gqg	-17538
▁grz	-17539
▁gtt	-17540
▁gwl	-17541
▁gwv	-17542
▁gxp	-17543
▁gzj	-17544
▁gzr	-17545
▁gzt	-17546
▁hab	-17547
▁hbb	-17548
▁hcf	-17549
▁hch	-17550
▁hcr	-17551
▁hcy	-17552
▁hej	-17553
▁heq	-17554
▁hhl	-17555
▁hjy	-17556
▁hks	-17557
▁hlf	-17558
▁hly	-17559
▁hmf	-17560
▁hmt	-17561
▁hqa	-17562
▁hqf	-17563
▁hsg	-17564
▁hsp	-17565
▁huj	-17566
▁huy	-17567
▁hvb	-17568
▁hve	-17569
▁hwb	-17570
▁hwm	-17571
▁hwy	-17572
▁hyb	-17573
▁hza	-17574
▁hzy	-17575
▁iba	-17576
▁ibh	-17577
▁ica	-17578
▁idd	-17579
▁idm	-17580
▁idp	-17581
▁iek	-17582
▁igg	-17583
▁ihf	-17584
▁ijb	-17585
▁ikp	-17586
▁ikz	-17587
▁ils	-17588
▁inp	-17589
▁inu	-17590
▁ioy	-17591
▁iqd	-17592
▁iqk	-17593
▁iqr	-17594
▁iqv	-17595
▁irw	-17596
▁isa	-17597
▁isc	-17598
▁itl	-17599
▁itm	-17600
▁iue	-17601
▁iuo	-17602
▁iur	-17603
▁iuy	-17604
▁ivy	-17605
▁ixg	-17606
▁ixp	-17607
▁ixy	-17608
▁iyf	-17609
▁iym	-17610
▁iyp	-17611
▁izg	-17612
▁izq	-17613
▁jan	-17614
▁jcq	-17615
▁jfb	-17616
▁jfs	-17617
▁jfw	-17618
▁jge	-17619
▁jgo	-17620
▁jjp	-17621
▁jlf	-17622
▁jlk	-17623
▁jll	-17624
▁jnm	-17625
▁jqa	-17626
▁jrt	-17627
▁jsf	-17628
▁jta	-17629
▁jtz	-17630
▁juf	-17631
▁jxg	-17632
▁jxi	-17633
▁jxm	-17634
▁jxr	-17635
▁jyo	-17636
▁jzy	-17637
▁kap	-17638
▁kax	-17639
▁kbf	-17640
▁kdp	-17641
▁kdz	-17642
▁kfj	-17643
▁kgy	-17644
▁kgz	-17645
▁khz	-17646
▁kig	-17647
▁klf	-17648
▁klo	-17649
▁kms	-17650
▁knr	-17651
▁kpb	-17652
▁krd	-17653
▁krf	-17654
▁krs	-17655
▁ksg	-17656
▁ktw	-17657
▁kua	-17658
▁kum	-17659
▁kxi	-17660
▁kxt	-17661
▁kyf	-17662
▁lag	-17663
▁law	-17664
▁lbm	-17665
▁lcf	-17666
▁lcz	-17667
▁leg	-17668
▁lfq	-17669
▁lgl	-17670
▁lhi	-17671
▁lhk	-17672
▁lhw	-17673
▁lif	-17674
▁lkm	-17675
▁lkw	-17676
▁llz	-17677
▁lmc	-17678
▁lmx	-17679
▁lnh	-17680
▁lnt	-17681
▁loa	-17682
▁lox	-17683
▁lqf	-17684
▁lqr	-17685
▁lqt	-17686
▁lqz	-17687
▁lsb	-17688
▁luf	-17689
▁lui	-17690
▁lws	-17691
▁lwt	-17692
▁lxb	-17693
▁lxf	-17694
▁lyf	-17695
▁lyj	-17696
▁lze	-17697
▁maa	-17698
▁mag	-17699
▁mah	-17700
▁mal	-17701
▁mcf	-17702
▁mcr	-17703
▁mcz	-17704
▁mew	-17705
▁mge	-17706
▁mha	-17707
▁mhi	-17708
▁mhj	-17709
▁mkl	-17710
▁mks	-17711
▁mml	-17712
▁mmp	-17713
▁mmy	-17714
▁mnj	-17715
▁moz	-17716
▁mpp	-17717
▁mpy	-17718
▁mqr	-17719
▁mrg	-17720
▁msp	-17721
▁msw	-17722
▁mtj	-17723
▁mtv	-17724
▁mup	-17725
▁mvc	-17726
▁mvf	-17727
▁mvm	-17728
▁mvs	-17729
▁mvw	-17730
▁mvz	-17731
▁mwp	-17732
▁mxb	-17733
▁mxi	-17734
▁mxm	-17735
▁mxw	-17736
▁myg	-17737
▁ncj	-17738
▁nde	-17739
▁ndy	-17740
▁neu	-17741
▁nfb	-17742
▁nhg	-17743
▁nhs	-17744
▁njf	-17745
▁njy	-17746
▁nkg	-17747
▁nlc	-17748
▁nlm	-17749
▁nne	-17750
▁nno	-17751
▁now	-17752
▁npr	-17753
▁nqq	-17754
▁nqr	-17755
▁nqt	-17756
▁nsp	-17757
▁ntm	-17758
▁nui	-17759
▁nup	-17760
▁nvi	-17761
▁nvw	-17762
▁nxj	-17763
▁nyf	-17764
▁nyi	-17765
▁nyp	-17766
▁nzd	-17767
▁oba	-17768
▁obt	-17769
▁ocd	-17770
▁ode	-17771
▁odz	-17772
▁oen	-17773
▁ofb	-17774
▁ofe	-17775
▁ofh	-17776
▁ofq	-17777
▁ofw	-17778
▁ogi	-17779
▁ogt	-17780
▁okb	-17781
▁okp	-17782
▁omg	-17783
▁omy	-17784
▁onb	-17785
▁onj	-17786
▁onm	-17787
▁onr	-17788
▁opi	-17789
▁opl	-17790
▁osf	-17791
▁ouf	-17792
▁ouz	-17793
▁owl	-17794
▁owz	-17795
▁oym	-17796
▁oys	-17797
▁pbj	-17798
▁pbw	-17799
▁peg	-17800
▁pem	-17801
▁pfg	-17802
▁pga	-17803
▁piw	-17804
▁pjw	-17805
▁pkm	-17806
▁plf	-17807
▁plu	-17808
▁pnr	-17809
▁poe	-17810
▁ppg	-17811
▁ppr	-17812
▁pqa	-17813
▁ptb	-17814
▁ptf	-17815
▁ptn	-17816
▁puf	-17817
▁pvk	-17818
▁pvn	-17819
▁pxc	-17820
▁pxs	-17821
▁qao	-17822
▁qbg	-17823
▁qbs	-17824
▁qby	-17825
▁qfi	-17826
▁qgf	-17827
▁qgg	-17828
▁qgp	-17829
▁qhg	-17830
▁qhn	-17831
▁qhr	-17832
▁qhz	-17833
▁qia	-17834
▁qip	-17835
▁qiu	-17836
▁qky	-17837
▁qmw	-17838
▁qnb	-17839
▁qnf	-17840
▁qnj	-17841
▁qok	-17842
▁qpa	-17843
▁qpm	-17844
▁qqb	-17845
▁qqi	-17846
▁qqm	-17847
▁qqt	-17848
▁qse	-17849
▁qsh	-17850
▁qsj	-17851
▁qsn	-17852
▁qsp	-17853
▁qtz	-17854
▁qvr	-17855
▁qvs	-17856
▁qxd	-17857
▁qxj	-17858
▁qyf	-17859
▁qzn	-17860
▁qzo	-17861
▁rch	-17862
▁rcw	-17863
▁rdh	-17864
▁rdm	-17865
▁reh	-17866
▁rei	-17867
▁rfz	-17868
▁rhg	-17869
▁rhi	-17870
▁rhq	-17871
▁rhy	-17872
▁rjg	-17873
▁rjj	-17874
▁rkb	-17875
▁rle	-17876
▁rls	-17877
▁rmf	-17878
▁rmg	-17879
▁rnb	-17880
▁rnr	-17881
▁rof	-17882
▁rph	-17883
▁rrd	-17884
▁rsb	-17885
▁rsp	-17886
▁rsv	-17887
▁ruj	-17888
▁rus	-17889
▁ruu	-17890
▁ruw	-17891
▁rwk	-17892
▁rxb	-17893
▁rza	-17894
▁sbs	-17895
▁sdf	-17896
▁sdi	-17897
▁set	-17898
▁sey	-17899
▁sgm	-17900
▁shg	-17901
▁shi	-17902
▁sia	-17903
▁skp	-17904
▁snz	-17905
▁sof	-17906
▁soy	-17907
▁spr	-17908
▁sqi	-17909
▁sqk	-17910
▁sqo	-17911
▁sqp	-17912
▁sqz	-17913
▁sra	-17914
▁srf	-17915
▁ssg	-17916
▁swg	-17917
▁syq	-17918
▁sys	-17919
▁szi	-17920
▁szs	-17921
▁tab	-17922
▁tac	-17923
▁tcp	-17924
▁tcr	-17925
▁tdc	-17926
▁tdp	-17927
▁tdy	-17928
▁tee	-17929
▁tel	-17930
▁tev	-17931
▁tez	-17932
▁thk	-17933
▁tin	-17934
▁tka	-17935
▁tkg	-17936
▁tlz	-17937
▁tmb	-17938
▁tmr	-17939
▁tmy	-17940
▁tna	-17941
▁tns	-17942
▁tpi	-17943
▁tpz	-17944
▁tql	-17945
▁tqt	-17946
▁tqw	-17947
▁trc	-17948
▁trf	-17949
▁trg	-17950
▁try	-17951
▁tsb	-17952
▁ttr	-17953
▁tul	-17954
▁tuy	-17955
▁tuz	-17956
▁tvp	-17957
▁twj	-17958
▁txp	-17959
▁tye	-17960
▁tyi	-17961
▁ubt	-17962
▁ubv	-17963
▁ucg	-17964
▁ucr	-17965
▁uej	-17966
▁ufb	-17967
▁uha	-17968
▁uhc	-17969
▁uhp	-17970
▁uii	-17971
▁ukg	-17972
▁ukp	-17973
▁ukv	-17974
▁ule	-17975
▁ulw	-17976
▁umg	-17977
▁umn	-17978
▁umo	-17979
▁umr	-17980
▁unm	-17981
▁unr	-17982
▁uoj	-17983
▁uou	-17984
▁uph	-17985
▁uqm	-17986
▁uqz	-17987
▁uss	-17988
▁utj	-17989
▁utm	-17990
▁utp	-17991
▁utu	-17992
▁utw	-17993
▁utz	-17994
▁uud	-17995
▁uul	-17996
▁uve	-17997
▁uvg	-17998
▁uvp	-17999
▁uwb	-18000
▁uwm	-18001
▁uxe	-18002
▁uxj	-18003
▁val	-18004
▁vap	-18005
▁vat	-18006
▁vbp	-18007
▁vcf	-18008
▁vdh	-18009
▁vjg	-18010
▁vkb	-18011
▁vkg	-18012
▁vlm	-18013
▁vna	-18014
▁vnw	-18015
▁voy	-18016
▁vpy	-18017
▁vqf	-18018
▁vqz	-18019
▁vrf	-18020
▁vrj	-18021
▁vss	-18022
▁vug	-18023
▁vuq	-18024
▁wbg	-18025
▁wcb	-18026
▁wcy	-18027
▁whb	-18028
▁whc	-18029
▁wil	-18030
▁wkz	-18031
▁wlb	-18032
▁wle	-18033
▁wll	-18034
▁wlw	-18035
▁wni	-18036
▁woj	-18037
▁woy	-18038
▁wpw	-18039
▁wrf	-18040
▁wru	-18041
▁wsr	-18042
▁wto	-18043
▁wur	-18044
▁wuz	-18045
▁wve	-18046
▁wvf	-18047
▁wvm	-18048
▁wvs	-18049
▁wxa	-18050
▁wxg	-18051
▁wzj	-18052
▁xaf	-18053
▁xbe	-18054
▁xcf	-18055
▁xdc	-18056
▁xde	-18057
▁xdi	-18058
▁xfg	-18059
▁xfm	-18060
▁xgy	-18061
▁xjb	-18062
▁xjp	-18063
▁xkf	-18064
▁xlg	-18065
▁xly	-18066
▁xmy	-18067
▁xnn	-18068
▁xnr	-18069
▁xoa	-18070
▁xpl	-18071
▁xpm	-18072
▁xqh	-18073
▁xqu	-18074
▁xrl	-18075
▁xtj	-18076
▁xve	-18077
▁xwg	-18078
▁xxf	-18079
▁xzb	-18080
▁xzt	-18081
▁yaq	-18082
▁ybk	-18083
▁ybo	-18084
▁ybw	-18085
▁ycq	-18086
▁ycx	-18087
▁yde	-18088
▁yeb	-18089
▁yfo	-18090
▁ygg	-18091
▁ygn	-18092
▁ygp	-18093
▁ygy	-18094
▁yhd	-18095
▁yii	-18096
▁yjc	-18097
▁ykg	-18098
▁ykh	-18099
▁ykq	-18100
▁ykr	-18101
▁ylg	-18102
▁ylw	-18103
▁ypl	-18104
▁yps	-18105
▁ypz	-18106
▁yqv	-18107
▁yro	-18108
▁yry	-18109
▁ytj	-18110
▁yum	-18111
▁yuw	-18112
▁yvv	-18113
▁yvy	-18114
▁ywj	-18115
▁yxj	-18116
▁yxm	-18117
▁yzo	-18118
▁zbm	-18119
▁zdg	-18120
▁zfe	-18121
▁zff	-18122
▁zfg	-18123
▁zfp	-18124
▁zgi	-18125
▁zgs	-18126
▁zgw	-18127
▁zhg	-18128
▁zib	-18129
▁zji	-18130
▁zjy	-18131
▁zkk	-18132
▁zks	-18133
▁zls	-18134
▁zma	-18135
▁znb	-18136
▁zng	-18137
▁zni	-18138
▁znz	-18139
▁zog	-18140
▁zps	-18141
▁zqa	-18142
▁zqd	-18143
▁zqe	-18144
▁zqn	-18145
▁zqp	-18146
▁zrk	-18147
▁zsg	-18148
▁zsw	-18149
▁ztn	-18150
▁ztw	-18151
▁zuv	-18152
▁zvf	-18153
▁zvj	-18154
▁zvs	-18155
▁zwl	-18156
▁zwq	-18157
▁zyf	-18158
▁zzs	-18159
▁1588	-18160
▁1592	-18161
▁1628	-18162
▁1633	-18163
▁1649	-18164
▁1682	-18165
▁1683	-18166
▁1684	-18167
▁1687	-18168
▁1688	-18169
▁1725	-18170
▁1732	-18171
▁1733	-18172
▁1737	-18173
▁1744	-18174
▁1747	-18175
▁1754	-18176
▁1762	-18177
▁1784	-18178
▁1836	-18179
▁735+9	-18180
abl	-18181
aeo	-18182
agv	-18183
apo	-18184
arf	-18185
awt	-18186
aze	-18187
azi	-18188
azk	-18189
bar	-18190
bgn	-18191
bpo	-18192
byc	-18193
bzy	-18194
eir	-18195
ezq	-18196
fao	-18197
fat	-18198
fik	-18199
fin	-18200
fjn	-18201
frj	-18202
fzu	-18203
fzx	-18204
gej	-18205
gel	-18206
ieg	-18207
iej	-18208
iem	-18209
imn	-18210
imr	-18211
jah	-18212
jax	-18213
jbv	-18214
jey	-18215
jic	-18216
jmf	-18217
jmg	-18218
jmh	-18219
jmt	-18220
jrb	-18221
jwt	-18222
jzb	-18223
jzq	-18224
jzr	-18225
mmi	-18226
pad	-18227
pag	-18228
pfc	-18229
pmx	-18230
rap	-18231
reh	-18232
reu	-18233
rjo	-18234
rma	-18235
rrr	-18236
rrt	-18237
rzy	-18238
sik	-18239
sjg	-18240
smc	-18241
smk	-18242
srh	-18243
srx	-18244
szf	-18245
szk	-18246
szw	-18247
wbt	-18248
wmd	-18249
wpy	-18250
wrp	-18251
wyc	-18252
wzo	-18253
yah	-18254
yam	-18255
ybu	-18256
yph	-18257
yrm	-18258
yrw	-18259
ywd	-18260
ywt	-18261
yzb	-18262
yzd	-18263
yzk	-18264
yzu	-18265
zjk	-18266
zmz	-18267
zpv	-18268
zzv	-18269
▁ach	-18270
▁acj	-18271
▁ade	-18272
▁afo	-18273
▁ahj	-18274
▁aig	-18275
▁aiy	-18276
▁aka	-18277
▁aks	-18278
▁ala	-18279
▁alj	-18280
▁aln	-18281
▁anp	-18282
▁apd	-18283
▁apt	-18284
▁apw	-18285
▁aqe	-18286
▁aqm	-18287
▁aqy	-18288
▁ars	-18289
▁asz	-18290
▁atz	-18291
▁aue	-18292
▁auk	-18293
▁aul	-18294
▁auy	-18295
▁avo	-18296
▁axm	-18297
▁axs	-18298
▁aym	-18299
▁bbb	-18300
▁bco	-18301
▁bcw	-18302
▁bde	-18303
▁bdg	-18304
▁bdj	-18305
▁bdv	-18306
▁bej	-18307
▁bgp	-18308
▁bgv	-18309
▁bhd	-18310
▁bic	-18311
▁big	-18312
▁bip	-18313
[...]
